152
conv1.0.weight 432 bca9a70f bd608343 bda9b1fd bd4b5a1e bd6c9277 bdd3df36 bcdb2cc6 bc851775 bd45f866 bb4763c2 bd6669b6 bd097098 bccdd757 bd9c0d02 bd96b5c3 3c49ed9f bd00bc02 bcdbaa6a 3d222d7f 3db4bc0e 3e333d6a 3db78587 3de5c284 3e21e92e 3d31361e 3d1dca96 3db6c234 bbeab550 bbf4c95d bc0d41ad bd49a46a bd997492 bd493559 bd1aac95 bd9cea2e bd573c16 3b9e2126 bb04eadf 3be87599 bd71e34a bdd455ad bd80662f bd512c88 bdc1a737 bd8a335f bb8e99b7 3c4c3178 bc34d31b 3db3449f 3e411601 3ddb829f 3dbbe019 3e49faab 3df3f4d2 000021d2 800004c0 80001bfe 00000d2a 8000107a 000001fb 00001247 80002170 80000946 000021f7 80000536 00000e5b 80002198 80000b8c 000014f8 800008d9 80000603 800008dd 00001f33 800011a5 80000f71 00001049 000021fb 000016ba 00000a6a 000012cc 8000108a 3d791957 3d6e9fb4 39fa3cea bbd7dc94 3c0f06c0 3c80d371 bd8ff99d bd5751d5 bb9bb862 3d82a7b1 3d9acef9 3c990bad bcb0519b bbaa1248 3c6a395a bdad7648 bd7b724f bb825b30 3da65091 3dbca3a3 3cc01eeb bd280ac8 bce64489 baf05b51 bd9dceef bd79f853 bb495066 bb3d065d bcd9a21c bd404e1b 3ceeb3ba 3c0a22ce 3ccb77ca 3b546858 bd50ca11 bcbb11b6 3b91e13b bcdf941d bd237013 3c2ba8c7 bcc85456 3c9187ee bb9cf5fe bd61905e bc21edbc 3d263a25 3d7e1bd9 3d10a6d8 bd16dc88 bd8fc77c 3c84b8b5 bd4668a6 bdc82165 bcf8d120 3c9d6ce4 3d07fc8f 3d05f5c5 3c9529f8 3d166943 3ccb7a3f bcee1524 bba021e1 bca1e31c 3c6e1aee 3cecc65c 3d0d5fc1 3cdaaa54 3d192905 3cb4d252 bbee390d 391c49fc bb08eee8 bd808bfe bd9e12ef bcd45d5a 3d15f434 3cd320e9 3ce2dcf5 3d521e99 3d87cc04 3dc29dfa 3d00e8e8 3c9e152e 3d6992ef 3dbf21b8 3db78665 3e0ae87e 3cc0084a 3d05d5db 3d88cd14 bd876a66 bdab9734 bd1afc9b bd38d1bf bd9ebb09 bceed115 bd8eadfd bda5a94d bd89aad0 3cc7da88 3d33d697 bccfa0f2 bcdd3c39 bb22f30e bdbb6db6 3c7f7cb3 3d95d843 bc8dcdcc bd44830b bd8fcf11 bd44efc2 bcc22724 bd3ba7d0 bc07eb44 bce7c8e9 bd552779 bc88aeda 3d525b60 3d9b4a9b 3d3dd11a 3dbb3989 3de86aab 3db21d4e 3d6cdb43 3d9fb930 3d55f234 bcae2d84 bc37cc42 bcde923e bd236cfd bd5c0d52 bd4e856c bc310108 bccf4f73 bd27d5fe 000021bd 8000065f 80000528 8000229c 80000a28 000013fb 8000217b 000018ac 800021f8 00000e6d 00001437 00000213 80001747 800015c0 80001b59 00001fb6 00000303 00001457 000002af 80000a2d 80001248 80000ec7 00000592 000003c3 800013ad 80001da1 000007a4 bcd7112e 3d75cac2 bc66ded3 bd81855d 3d5e656a 3d079c54 bd8b7a44 bc01c871 3c86f8d8 bc89b05e 3d860839 bb378068 bd8f804b 3d5f4fc5 3d2c434a bd9b0269 bc477646 3c882b6e 38d06518 3d8ffa3a 3b6b50f5 bd913586 3d52c547 3d1c3e8f bdabe319 bb4a5a0b 3c4072c7 bc27ee82 bc6e0819 bd782b04 3c6aeb3c 3d76f487 3cfffd80 3c8b3401 3cec8c09 3cd6dc9b 3b1bfc97 3b30778c bca482ec 3b52bea2 3d61ef7e 3d1afecb 38620090 3c59a9b9 3ce253b2 3d405300 3dbf87ed 3dcbe77b bd206345 3a16f47c bb88407f bcd94f89 bd3629bc bcfaf05f bbb9bf98 3c380200 3bc032b5 3c1e4f55 3d0f9e13 3badaf1b 3cf3716f 3c82adb8 3a455398 bc244b40 bc33a995 bb6202e1 3c6c7777 3cff1d11 bbae7964 3d1a66d0 3cab2819 bcbb5d1a bc845780 bb41be43 3c475aaa 3d20de43 3d2aff24 bc90b44b 3db84802 3da40ec9 bc6cac36 bc4e83b4 3c9daac2 3d20200c bb4fe256 bd5e2f7f bd940a68 bc17ce6f bbaf8023 bcaeddd9 bb552e4d 3b23bfbe 3bfc2524 b9b61ce3 bd7e6ae9 bda0c019 3c0b5e96 b8fc264d bcdff426 3c5eac63 bcde2b66 bd0b6704 3b861b33 bda8659b bdbe1315 3cc5b683 3d0f1660 3cb1d874 00001405 800006ea 80000e95 00001f51 00000589 000018eb 000003a5 800015c2 800019ac 80001749 800007f3 800010b9 8000090c 800008e9 00002889 000008d3 000006ff 000012af 0000158e 0000158a 00001b8e 00001954 80000f30 00000a2b 80000b8c 00000ad7 80000a07 bd10546e 3d3aa4eb bbf5913d 3c966ac0 3d97784c bd516a02 3c84dbe4 3cd895e6 bdb83847 bca60acd 3d8458e4 3ac76762 3cc03815 3da7a80e bd88d4e5 3b2db83e 3cc302e6 bde39452 bc67a258 3dae1085 bb2c291c 3cca2772 3daac742 bdafdeaa 3c1c4c39 3cefec92 bde9e4be bc9de4c8 3d5ec4bb 3a9027a3 3c0974b3 3ce9cc94 bb54a90e 3beaa105 bc33dea0 bb79b716 bc8a0397 3d95a5c7 3c19ef95 3b3085bf 3d41bb4d 3ac15439 bc2fbf1f bc138914 bbdf2a92 bc391a42 3dbf2ebf 3c24895e 3c486bba 3da4c3d5 3c91600b bad87a6e 3c5f8cb3 3a9220a7
conv1.1.weight 16 3daca5b2 3d9087ce 000005ae 3d54bbfc 3dd41545 3df48867 3d7098be 3d121f7e 00001e57 3d2b4cb9 3de504e9 3d44db04 3df4f979 8000157c 3d412261 3d25190e
conv1.1.bias 16 3deb0ab7 3d843efd 80000f38 3daf68e4 3d35b92d bd32c8a2 3d23fd31 3dd04961 80000a6a 3db12be3 bd1565fa 3dcb7408 3d2aadd2 80003467 3da1105d 3db7e33b
conv1.1.running_mean 16 3e2eea55 3e2b9872 000007de babe79cb 3d281217 bd534d98 bd01a6a2 bd16eed4 0000068f 3b4a820e bd2c897b bd035243 3d5b94fe 000003cf 3a8ebf36 bce6e273
conv1.1.running_var 16 3d3f681d 3d1e2e24 00000004 3b86e1df 3ccf3f7b 3d0bf6b7 3c0c6d12 3bd69787 00000004 3b361215 3ca5a8ef 3cf9bf65 3d13e7f0 00000004 3b1be190 3cfa2e93
conv1.1.num_batches_tracked 1 4a0cd818
conv2.0.weight 144 bc893daa bbd38e6a bd629184 bda5ea0f 3e707695 3d0defda bdec3a94 3e5e07f4 be18b8e3 bd5aac61 3e8f1dc2 3e83b64e bd2f954e 3e0ac1f5 3c97f172 3d61b484 bea6f183 be99cb2e 00001b9e 80001226 00001559 800015bd 80002274 80001c13 000015a2 8000055d 000001c0 bc559b65 3bd919e6 3c21165c 3c1ef33f bc87538b be5612f5 bb9a7c0c 3c721c55 3e3ebb09 bccf3d5a bd67b872 bd3983f3 3c0d31a4 bdce1c54 be5a7380 bd9a0500 3ecb9916 3e33ed18 bd3ec658 3d92b2f4 bd736b85 bcae64fc 3e880d85 3e10d80b 3a3b79d0 be2dfb0f bdb46e12 bd259569 3da0f217 bcde3842 bd1a5617 3dfc50af bbfd5636 bd615274 3dc929e1 bd416363 3ce3ce71 bda52530 3b5a4bdc 3c9b0b37 bd84c695 bcea9243 3d005fb1 bd7fec7e 3c365968 80000a70 00001245 00000cc1 800001b8 800006d5 00000b49 00000d26 00001544 00000afd bcb54768 3a88280d 3c2dc4d7 3c800f3e be27fad3 3e47b94e 3c9ac65d bd41bad6 bb5346ef 3c7733a3 bd3df8b2 3c5f5e4c bd104ef0 be069e48 bd3bdcad bcccd1e4 3e942516 3d45f09f 3c0a0e89 be26659f be9c6391 3ca1e6ba 3d15b9d3 bc6dfd6f bd8cdd3a 3e7c68a6 3e81b3ac bd180d70 3cba1120 bd1d3041 3d35350b 3ef32140 3da68a4c bd67f6d5 be9dea9d bdf1432e 00001249 80000ff3 80000e85 800003ac 0000090d 80000b69 00001159 8000023e 00000a72 3b7e16ff bcb6e831 3c29f73c be2372c1 3e01669d 3c95d5e3 bd03c4b3 3d86b9e7 bce8a27c bc6492bb 3c0de15b 3a6432c9 be31996b 3d88918a 3e05bbd7 bebe388d be0dcb3c 3efe0b9a
conv2.1.weight 16 3d8e431c 3dafeaf4 00000f89 3e072f12 3dacc389 3d60f685 3d8697c3 3d2e8d41 80001225 3dd4be8f 3d85053b 3e1fac0f 3db4c2a3 80000f38 3db72ce5 3e2ed2d9
conv2.1.bias 16 3e1aac86 3dd8942d 8b2fcd41 bb84d67c 3c9190e9 3e28ce32 bb0aed95 3dc18280 8bb4744e 3e7647f4 3d5c3674 3d4971fe 3dbca118 8b9148df 3e3e64c3 3dccbbd0
conv2.1.running_mean 16 3bf9d171 3ad6bfb5 00000004 bae365d2 3b8be9f3 3b307f77 3b8cf68d bc70fa70 80000004 39706cb9 3b127741 3ac50ce4 3ba1b18c 80000004 baa4c91d 39f7f6a8
conv2.1.running_var 16 38360108 392cfe23 00000004 38f68775 393efe7a 386cde67 3789a85d 37d20345 00000004 388bbe08 3833c4a7 3911f153 39745818 00000004 388f0c8e 393311df
conv2.1.num_batches_tracked 1 4a0cd818
conv2.3.weight 512 3c4d728e 3a823dc9 05fb7b14 bca601be 3d1b41d9 3d6c3d32 bbe88e2b bb6b1b24 076b31c7 bc8e40d9 bd40eaf8 bc836e48 bd3bd172 0614c001 3d3bd5ff bd80438c 3c333509 3c4afd80 06482327 3cc2df55 3d226978 3d814881 36b90dfa bb7c6085 86ad5a74 3b43da80 bd3efaee bd801f38 bd465b87 84a75db1 3d8ac602 bdfe8bc5 3c2a9de8 3b39326d 857def34 bc1920ab 3d4e760a 3d653f18 bd3b59e8 3a957ed2 0686e23a bcd862f6 bd755baf bcbf868f bd5c3f30 85da454f bcd219f8 3d6f5ad7 3d4c2c29 3d8cf2a1 057284d7 3cded937 bcca5a30 3d76974b bd1379d7 3b5da228 85087346 bb1f6f6d 3b51410f bcd20f60 bdc27b66 8460b46e 3c405841 3bda2e59 bda1000d 3c784ea3 044890eb bd10e91e be29d6fa bd564d7f bbbc7966 3a740fab 066b41d0 3c02517a bd99b9b3 3d035a24 bdb9782b 05bb0a6f 3c3365ad 3c1a665f 3c40d99a b96771ae 84ed601f 3ab14f0e b901940f ba8d5399 3e16a0be 3e50922b 8643d86c bba44283 38e82226 3a139392 3b3fe924 85dc132e bb02c58e baf5d419 3c434c90 3b207185 067447b8 bc31e5e6 3d190859 3d81b2a1 bd128d09 3cb56d8a 0764d997 bcd5d06e bd7b4829 bcff4491 bd763640 068edd87 bcdbaae9 3d4d1d02 3d2e3c71 be0cbb7d 0523bc70 3cd43efb bdae4ac8 bdec0085 bd0704f0 3d4152d7 86536d6a 3bb49210 3be0da9e bbecef86 3cf9039a 84018dca 3c3a55db bb1c1d6f bc625109 baa2149e 8752e708 bc9c706f 3a7e93ae 3c7a77f8 3a39edae 3c293d69 8791fc8a bc7f7f7d bc21282a bca44358 bc5a68da 8644bf46 3e562e22 bc81116d bdcae919 3bb5a8ff 83b634e4 b9bbe994 3d959b0f 3ca773ec 3c70e69f 3d35ae55 07566f16 3c290a7d bc387cef 3cca2b0c 3ceefb29 8523c933 bc5d42c9 bc6189d9 3c7c2de5 3b691919 04f12457 bc8cc1be 3d196e90 3d40076b bcdd2266 bc77d569 868b022b bca73213 bd4350e3 bbd3993b bd1690c5 852ccc22 3d3461c6 bd963f51 3ba5d02c bc39ceef 05dff05f 3c5a641c bbfd731a 3c3acb31 bbe94917 3b90c50e 073938e0 b8983110 bc62f852 bce9e950 bb58b4eb 84def62d 3cff2a37 bdd461f1 3ceff0fa 3a1feeb9 05c6c7f4 bcbc9c3e 3d6de4d3 3da12ab8 bc01daa0 3c2a5f69 86976ce8 bbd469f3 bd94d7de bd26f983 bd993dab 0202a80a 3c45b24b bc91244e 3bac4d4d 3b975c29 861ee82a bd16fbc8 3d10c888 3d54999c ba647bb3 3b494a18 0728de82 be1a986f bd0b4916 3d168658 bc031df9 849b50d6 3e00210e bcaa39ca bbee6f58 b9da507d 867eb6d1 bc82cf36 bb130573 bace3e1f bc38df28 3c21fa57 07f6838e be4898fe ba469baf bcb0d821 bc223ddb 86194cc2 bc8c7bdf 3c896bf6 bce58379 3daca04e 84ffe2cc 3c041f25 bcd9db82 bd2f80d3 bc0b325a bab415d2 84e994f0 bca849b6 3cd85ccd 3df367c9 3d8abced 86018df3 bc30a7a8 3a973333 bdda88dc 3cfb0208 85ef91e7 3d0e1dc5 3d00ba49 3d6a3e3e 3ca545ba bd1386bb 07b18fcc 3cab2136 bbc5bb97 be244415 bd8b5d04 84a78fdb 3cf5a839 3bf9c8b3 3b7d814c 3b628ea8 85bbcd1d 3c704a55 bd230535 bd5603d9 3c6c5bc9 bc5b168d 86cdcafa bb954ebd 3d2c55f5 3d2f956a 3d5d9edf 054178cb 3d273ad4 bd9c5f4a bcbae035 bc91c339 867dca06 bc7d0f75 bd24fa5b bd9acbfe 3cc456bd 3b9485af 046ca472 bd675c27 3d9a4472 3e078d33 3db88be3 035ba764 bc50eda8 3d886d92 3bde7a76 b8f122aa 845e67ee 3c8c196a 3d00d6c9 3c04b201 3cd37c48 bc1f57b7 07a94729 3e2aae6e 3c7d32be 3b5ae5ea 3c0e2680 85108ca9 bdc26e9b 3c82cca3 3c9a953b 3c29634b 860fa48b bc8919cf 3d27f80e 3d8d59a1 bc844215 3cacda18 074b8081 bcf752a9 bd9212d5 bd0d53cd bd935c8e 8625dc3f bc1d7077 3d127086 3c1b273f 3bbf466b 040e45b9 bd41bced bc5ef8e0 ba5e9836 babd480a bab0f6ad 86c7aa8b 3b3bf6e9 3b59f93e b93e3bb8 ba11c4cb 845288a6 bc50eb22 be3ce2b3 3e5db3ac 3c29b622 05846f89 bb9d9f9a 3d2f2bef 3d34990b 3d8d66e0 bd591abe 063aa692 bca37a0a 3b8395c3 3cb841c5 bbc93a2f 855aa923 3b41eb22 bbe225a8 3de4c9a5 bd2273d4 85c43c1c 3afb6e0f bd6f583e 3ca081ee 3d14fb9f bd9ca753 861e8247 bd1178f2 bc4ec242 3c747039 bccff2d5 04822a05 3d28b6d1 3c2045dc 3d9ba8dd bddcf3be 04a043da 3ad22910 3c712797 3ca68167 3d6d8721 3da92923 03e82d2e bb14bba6 3c6aafc2 bbec09fa bc1b9a6b 0595824d bb5a44f8 bba2fc8e 3cebe362 3de22b72 85b661ce 3d9efa7b bd1868b1 bd6a2e8a 3d5e09fb bcaa3dbb 0724247f bc6af014 3cbbe094 3b96b5a0 3db219c4 858320ac 3c91c1d6 3ba6f2f1 3bb05f6e bd82803a 05aebb49 3d22f934 3c8c1f56 3a77370e 3d8dc624 bd35eba9 84a4537b bc23728f 3d6b4688 3d5b7a32 3d12c447 04a00c61 3ce91ae2 3c5e3204 3ce31df9 3b5f6c9e 05a3cdf4 bc97c318 3d4a140e 3d9d1c42 bc3206a8 3cd976f1 0854cc68 bbe68916 bd8f2fb6 bd2f37eb bd9f6d82 054ffd80 3cd43510 bce8dbf8 bbafc7b8 bc6373f7 85d0ba39 3e245c3d 3d005734 3ce04afe bb4d8642 3bdd939c 071f0ad4 bc01f92d bc470bf2 3cb73645 3d2066d8 865a6b18 388aa2c3 bba243f3 3d3da8ba 3c9e4876 04f13d1e 3b23a046 3e0e27f9 3e482d70 3cfda1f0 bc3031e7 03b658d8 3c09cd40 be138118 be33ccfc be005d35 0600af90 3b2be60a baad3067 bc9136e4 be4086ab 8513b5c3 3c673edc bc25bf9b 3a3df8b3 bd26d0d5 bc1fda49 06b0999b 3bfd8a14 bc711f32 bc6902f6 baaad989 061048cf 3c092a97 3ac67696 bcbe46d4 bc409eb6 05fc4f74 3e356f15 3c4af1f6 3c97cf1e 3c1483e0 3ba08e8a 870af4d6 3c96177e 3bbea27c 3d0fda64 bc5ee969 0538b6c9 bb6a9384 bd8ad9a4
conv2.4.weight 32 3cfa6fdb 3db32425 3cbd5b74 3d79f39e 3dfaee07 3d05e43a 3d29149f 3d85fb72 3d856b92 3d205c4a 3ced5c83 3d737e02 3d3f2c00 3d205000 3d998a46 3d95d8e3 3dd56934 3d46b037 3d986eea 3d719cc1 3d4d9d06 3da2f393 3d6e84da 3ce9f864 3d0b85a9 3d58e385 3cd5fc6b 3d539e2a 3d994699 3da38e4f 3d8f3fb7 3d60e41d
conv2.4.bias 32 3d9a7b45 bc215b81 3da792b2 3bf9d6d1 bdca7e29 3d873773 3d72c7bd 3d24654d 3a9b2b42 3d4c2dc5 3da4bdf0 3cd1f4d3 3d88d6fa 3d99e9ae bac5df67 3c8a74af bdb482af 3d190e5f 3cc14258 3a95d9d9 3d7fe731 3cfc5781 3d7a7b96 3d996445 3d730ad0 3bb2f6b1 3da0ee3a 3d83f755 3cc1653a 3a1d33f2 3c953382 3d2fbbd9
conv2.4.running_mean 32 39f0220a 3af5d3e7 bb2cfcea 3c85ec04 bcfcdeda 3cb35677 baffe579 bca37ed0 3d000fdd baefa518 bb364b95 bc01673f 3b810d5b bbaddb63 bd57a7c5 3be1e632 bc39326b babaed9d bb918dcc 3cf480c4 b9a4b48e bcc2531e 3d0e44e9 3bb31a81 3c21150f 3c8fff6f 3bfd620c 3bc1733f 3c2f6c3c 3c75f044 bcbe4ccd 3adcb7ab
conv2.4.running_var 32 38f5796c 39c333db 39056e98 392b4398 392d9b9d 38e67334 3903f20e 391acc16 39769311 38a29eaf 38ff8f57 3933fc48 39181bb5 3984d9e2 3995fa27 3994c1fa 3a041a8b 392bf065 3a07b1d4 397f66ca 39100824 3a099fd4 39495247 38e59644 38a66fe6 39138109 39068547 39272ab0 3946bd39 3a87a368 3933c495 39809c2b
conv2.4.num_batches_tracked 1 4a0cd818
conv3.0.weight 288 bd570744 bc9116c6 3d26d6eb bd121c37 3df898e6 3bda9258 3d3b9a7b 3a75766d bd84044d 3c151042 bc9cf2dd bc23af5b bc8f5e35 bd3d49c4 bd19f0de bcb3a39f bd171032 bd08f679 bca264a5 bd2ee056 3cd133ce 3da89491 bd55b323 bdd903aa bc5155dc 3dd0415c bc4dcebc bc0921f9 bc906b7a bb4fcf66 bcb424df bd090839 bcb2c88f bd06ffdf bccd84b5 bd0454ad 3d08693f 3d06c10f 3d0495fa 3d4a80d7 3d6e563d 3d2d2901 3d1774dc 3d4ac02d 3cd7fdfa bd845be8 bdd7ffc1 bd991204 bd46d299 bd310ea8 bc7ce8b8 3ded2d06 3e2d35af 3db517bd 3d269396 bd076e5e bd2e6bf8 3c409bcb 3e028c45 3bb215c3 bda70c5e bd87d5ee 3d121c84 bc8baf24 bcf9ccf4 bcc0f4c3 bcf65f20 bcc0d29e bccc7911 bd0386e4 bd5ac488 bc3f0333 bcb1c9cf bd579343 bceebd71 bce60f84 bd8e0415 bd6b110e bb5e6fac bd130d5d bd2eef7e 3d7f915c 3c841848 bd70053f 3da4960e 3c4084d8 bd9fa094 3d138bff bb6cfd49 bd575496 3d25ba9e bd3b5c37 bd12ade3 bd9564d6 bd9ce040 3db3aadf 3c91ad99 3dbac82b bb40cffe 3d0e9d12 3d30a4da bd43f758 3d608019 3c54c3a9 bdaa5dc6 3d23d130 bc416642 bd3cc8c1 bc2a3f6e bcb42afd 3c9c346e 3d9b49c9 3dc8a4c9 3d2fd454 bcf69e10 bdd589ff bd5f5ec8 3cc4795d 3d2127c6 3cc2ae3b 3cfcfb56 3d84661d 3d28731d 3cb92d30 3d22e504 3cdf0ff4 ba5b02d6 bd181c5f bd1299cd bcf486ff bd87eb8e bd3f7ac2 bd07ce32 bd41dfe4 bcb41742 bceaf39f bd1afc69 bc610b55 bce4ca7f bd2a0225 bc292c88 bc9acce7 bc5c5ddb bc0c7c98 3cb4a154 3d372fd0 3cb003cb 3d2f88c8 3d7b0409 3cff59e9 3cff0747 3d4023a5 3cabcdd5 3d461fa2 bd111030 bd53ee7a 3d18e33e 3d88025a bd901575 bbb918de 3d888550 bb15059a 3d10bfab 3cdb5962 3ceebeef 3ce487d1 3da1ae28 3d512399 3ca5de66 3d526e80 3c878ea9 3c950c59 3d52b5ad 3d2696d1 3d0b4e88 3d8daae2 3d306b87 3cd61223 3d0bdb30 3c803379 3d43e596 3dd72559 3c8230ac bdc31d95 bdbef3b0 3cdcf575 3d14585d bc1eac22 bcfbdc9c bcb90ada bd146a66 bc9e0b33 bced61cc bd85918e bd29e2e0 bc08b63b bcf1069d bcc18fba bc5e89f6 bc4c4195 bb50ec5a 3d14fcbc 3d526a4e 3d0a904a 3d07fad3 3d94c2b4 3d278e75 bc50cb5c bd1b09c5 bce281ee bced7faf bd6e74bb bcff9399 bc7a95a0 bcca5fa2 bc2d220e bd1866d5 bd88312b bbdf7d42 bc9ca795 bca0983e bcc2a797 bc7fd4ab bbeb6b9a ba378671 3d17177b 3d4f01e1 3c875eed 3d0ca76a 3d477bc6 3c9c21d3 3c47ca6c 3c061636 3c1224f8 bd8d8aa6 bda3bdbf ba3979a1 bcb52016 bd0e89c2 3cba3625 3c75a732 3cdd7016 3c68f6c5 3d26211a 3de6e37a 3ce8bec4 3c4c88f7 bdca3591 bdb99671 bc5c2c9e bc3eabd0 3cc8fbfb bd17b455 bd5a0caa bcde474a bd2c21af bd544a63 bcaf2bcd 3b11cc20 3b9674ea bb38fe3f 3d01ea13 3d70ec12 3cbc5c03 3d2b3973 3dbee336 3d595993 3d0f4060 3d80bce9 3d1159d1 bb6038cc bbf7adab 3b47ba2f bd0492d8 bd89ec41 bbf384c1 bce83fb5 bd4fe348 bc5498ef bb50ae7f bc707a9b 3a66413f bd4e161b bd83dcc9 bca60308 bd2926e2 bd5bcaab bc0a4d31
conv3.1.weight 32 3dc4dc2a 3dcce7b6 3dd3595d 3d4caeb0 3e180d12 3d78cfa7 3db38c62 3d642ba0 3daca95d 3d9df0e7 3dbf3635 3dac9691 3daf4961 3da33f4c 3d92c4c8 3df6bf10 3d962f3c 3da28dc1 3d8c9004 3d86de2b 3db28b8b 3d83a373 3d9461ae 3dc256b0 3d9310e4 3d3da2b4 3d96a295 3db27c19 3dc084df 3dbaa534 3d3377e9 3d63d087
conv3.1.bias 32 bc2a476f 3cc943f3 3b85eed0 3d47bb14 bdc23345 3df4910e bb8dce8c 3da020d7 3ded9051 bc0cfd59 3bd1df6d bc22307a bc114508 3bb46934 3dae6af0 3c61aa4d 3c9aa010 bb94cfdb 3d4a4fef 3d12f59d bbf23c8a 3e1ea5c8 3dc319e5 bcae043e 3cb1dd25 3ccacc6f 3cabf84c bc0a567b 3d3f649a 3d95f12a 3e155081 3e048101
conv3.1.running_mean 32 3b5e4050 bb809354 bb414b25 bb9efb00 3b3140ac 3ae9feec b9375303 bc45fb38 bbc7c344 3a00e64c 39eeb0c4 b9e40d62 3a3b2314 3cc12992 bbbfe725 bbaa8273 3a9dc532 3b04b537 3c362a76 3bafab5a 3928440a bc4dcd4d 3c71f39a bc95afad bc3decf0 3b847925 bc1d1324 391dd314 bbda5e07 3c236388 bbdf3bcc bc3c948e
conv3.1.running_var 32 3775f7fb 38155d44 3761a4cf 3805eb7b 3800b73e 3771ddc5 37c33802 3884f66d 38a1f67d 37aa84e3 375d4f9d 37b091d2 3812a23b 37af93a4 3858439b 38a73aaf 377bc450 37ea657a 3979f596 388c655f 38030226 383ec7ca 3906a2c7 37d87bd9 37c4733b 384fbff6 37625e06 3812b39b 38f1df33 391e89b0 3803e0ca 38978dbf
conv3.1.num_batches_tracked 1 4a0cd818
conv3.3.weight 1024 bbfddfde bc2f12f5 3d2fe94d bc9ceffd bdceaecd bcd6de94 bb124250 bd589f37 3d48a51a 3d2b72a8 3c91c357 3d552f00 3ccbb7a6 3dca60dd 3d3760f9 bda7320e bb752006 3d44e945 3dbf09f6 bccdc2ec 3c2264be 3bdfffa0 3c4230e6 3cf720ee 3c89cfa6 bd689720 bd66fb9b 3c944910 3d0e329b bd0ccbd9 3dba90df 3cc80c2c 3d389c6c bd2f11be 3cc2aae8 bd022c1f bd1d2fff bd1949ea 3d42df5f badf16e1 bd621dd6 bbda642c 3cd86e42 bba30060 3d61e139 bd06f48c bd97bc49 bd160011 bcb1e3a6 bb93ad7c bd9c9b43 3cc4d0a3 3d306649 3cd36519 3ce1a2fa 3ca11e1c bb84e4a5 3dc18744 3cdb55a9 3d4aed2e bda836b3 3db536c6 3d5d73c9 bd61a129 bb341613 bb3be66a bb399a1b 3c7b84c0 bda5dea3 bdd17b68 bc2dfc91 bd92c377 39e060c9 bb803bc2 ba622e15 3c593a9a bc2e7c3a b95884e3 3c74a683 bd145d9d bd39c3c6 3b7beece 3aa9c73c 3bda6fde bc15dbdb bb9c1ef2 bb2455c9 bd637e7c bbd843a6 bd90e98e 3a560c95 bb8d5754 bc314622 3c3497fd bcff45e8 3d18a346 3d6a7c0e 3ba7599e bce8a263 bc53318e bc9b7244 3bb76634 bc18d287 3c713dab bd906ed1 3c58788f 3d59ca61 3cebd049 3d638de4 bc5008bc bcbc9658 bcb0eab1 ba0e193f 398b57cd 3da0cb57 3cba28fc bbd4234d 3cebf0e5 bd9de407 3d6fe412 3d21949a 3c9f725c 39d9f204 3d7cb08a bd4564b9 3c979113 bcaeb410 bd8d8964 bce188a2 3d09b7c3 bc7ce3a8 3cdd39ba bd7df5d0 bd9753b0 bcca51b6 bcbdb576 3c4c9d20 3b9397d5 bc54b197 bcd79c88 bc093fc8 bccdef89 3c8d4498 3cdcff7a 3d97cd01 bd13cee9 3b586f88 bdae10ab bc868b9d bc7d6ed3 3db66240 bd0c13a1 bc3a502b 3da5c16f bd5320cd bc0071c3 bc9e66d8 bc7bbaaf 3d89c601 bc6a0093 3cb55992 bd74f193 3c8306c1 3c9f4a60 bd84f35e bdae3ed4 3ca78021 3c00d23d bca8f80c 3d1d77a6 3b2a73bb 3da6bf27 3bfee0d0 3b73b4e7 bcd77c2c 3c93040b bd938b6a 3d4d989b bd017cbf 3d92deff 3c1eedb5 3cc50788 bcd197ed bc87c2a5 3d1885c3 3c2048ab 3d77991d bc1bce7f ba746ae6 bc14e363 3e01db5c 3cdbfb2a bc2ae826 3c9eefcf 3d4fd4dc 3bb5f5d2 bd08e5c1 3c3e9957 3d4b59da 381596ce bd430e4a 3cb27dfb bcbc8d18 3c78c0d0 3cf2b3d5 3ba26292 bd973871 bceaa03d 3c5e2b5c 3d6e907e 3d1af0e0 3ce98d35 3d28d4a1 bcbf7801 bd93c087 3da82ee2 3d090bea 3cb1f458 3c807a27 3c43af2a bd981537 3c674f65 bc8a9968 bd76c13f bcfaa352 bc58b875 bd1d7a38 bd51994f bd6edd11 3c34e05a bc6d4927 bd1c9efa 3dbe611a bd93920c bceae94d bdc0721d 3dc766dd bd73408c 3dcd24b1 bd2f2d93 bcaed0b8 bcf4a9b4 3da52f88 bdf6cc03 3d3db8f2 3d048839 bc8de417 3c33d4bb ba757b5b 3d38dbb8 3b903eba 3d8d87ab bd774927 3dec926e bbc6987c bdbe359f bc206495 3cd9ca09 3c21a011 3c543553 3e007b62 3c3de883 3d025a70 3c95e73c 3dc393be bc111e34 3ad9de7c bca5cb39 3d4d2a44 bc0dc704 3d807a6b bd2add14 3c11ff60 bafed032 bc8bb710 bcfa7ef7 3cdb3e28 3d867bd5 bca53e37 bba67fa0 bb9f1600 bb23ff41 3cd37e23 bb0d7b31 3cc49dc0 3d2fb4af bd4b113a bda1b850 bcd276d4 3d3c6a56 bb010bbe bc8e2df1 bb5945a0 bc989ec0 3b8a4bd0 bcc09215 3d183612 bcbd2ff4 bc41437f b9437fc3 bd1cd7d7 3c7b4eb6 3b4cef07 bced487b 3d7adbc0 3c7e7b98 bcd2e0a5 bbd9f04f 3becac61 3da74bd8 3ce3492b bd1f51f8 3cfe472e 3aad0381 bab62e1d bd106943 3cbeea2f bdad559b 3c535190 3cda76fa 3c528246 bcc7e642 3b3f9a84 bd01f781 bc876590 3c02349e 3aff671b bd844d84 bda62b1b 3d259e16 3bfbf3aa 3c4904f9 bc973e50 3d18d733 bd90aefe bc07f716 bcb0b364 3c534be7 3d7e351e 3d5a5177 bccc9c60 3b568641 bbedd760 3b514fe2 3da1edd9 bc686d2d 3d27fe21 bc5210c1 bc293102 bcac4968 bdcce05b bc131407 3bb061f0 3da684bc 3c90cc9a 3c904e95 3bed6c27 3b381e95 3c781d15 bc60fcef 3adf67cb 3d1cd973 3c2046a9 3c4ebd67 bc507897 bca37226 bcac95e9 bc49c8d3 3cca8d61 3ce49fa9 bc61bd13 bc61a65a 3c02aef6 3dd7251e bc667ff6 3b9b575b 3b3d1b20 3c581516 bd064d1b bc40e054 3c8ea489 bd0eacb4 bc21b049 3b15f080 3bcb137b 3b91c04d 3c22a906 bd220fc7 3d18a9cf 3d13350f 3c85ac61 bcdfb526 bd7f49fa 3c84f236 3c5c2240 3c0b23eb 3d0f308e bb3bc5d4 bd6e74a8 bd29e2c9 3b808d44 3bd45f13 3da9a6ba 3d8489e2 3d0710a0 3a68ceb5 bc8434f6 3ce7248c bd4090cf 3d816350 bbb66548 3cf7987c bd716e81 3cbbeae8 bd51fbac bd789fb4 3be83b83 bd271043 3b1d0990 bcc28913 3cb02b8c bd1a3e2f 3c3e2dd5 3cb5c703 3cf3fad8 3ab95d58 395c8b26 bc046527 3d22bd05 bc32b392 3cedd33d 3d24f964 bd97407c 3cc5f7b8 3b97677f bd95c176 3af68785 3c4a8e1f bc116423 bbfaa986 3cf6721a bce25c0d 3d326e43 3ccbe6e4 bd3be726 3e1482f4 3c1c2f58 bcfcf8c0 b9e93b93 3c347e09 bc05b98b bcccf8ab 3ca3c3ff 3e163306 bb7cccde bd9a43d2 3bb4ff3d 3b2bb54e b94b2753 bb95101a bbfbb439 bc1c4d2a 3c1638d0 3c955cde bc63d341 bbd4b0bf 3abdb6a5 3a440087 3b50c487 b8180134 3daaa34e b91e07fa bdd7cae0 3bd79c41 bbb3af3d 3a83ac6a bcc7fe56 bc868605 bda80b0c 3bfddc21 bcbba035 3ccbc849 bcbcb217 3cd8f503 bd6c044e bbca3ac1 bd03516e 3c8f15ac 3b247972 3d733c92 bcf27d5f 3cdbfa3f bd16c658 3d9c202f 3cded619 3d138523 3c0d48a8 3ba3d932 3c7c51a9 3cd4e956 bd2baf9d bcc46878 bc6ce074 3d3281bb bd0c28a5 bcffbd73 3d839cee bd651275 3da0c9e1 3e36514b 3d0c58b1 3dd14c50 bc2a65de 3b186c55 bb4ec455 bdaa657f 3d11e74f bbf3aac0 bcd85b7e 3d45dc95 3c7c0d83 ba307f89 b9d0130e bcc5508c bc586a40 3c2e01f9 3c9123fa bc6405e1 3cffd38c bc010876 3ca59345 bca94b5e bc8aa112 3b582d6e be39a764 3d24c464 3bb50643 3dcea11d 3c74a12c bbb8df59 3d5454ce bb938ae7 3d62adec bd2c739a 3be8aa8d 3d1b8a47 bc2bf95b bd5e7616 bdbd35e6 bc921579 bc8bdfcc bd00ead8 bd171c21 3d2c6600 3bade8d8 3c45a4f8 bcd24677 3daef4b1 bc667c1b bd71c3e1 3c5e7451 3bcbb9a4 3d758dde 3d0bd64a bb27e450 3e1745ee 3bb9f78a bcc71b4f 3b8fb39c 3d244870 bd6677b4 bcc98316 3c025b3f 3d1acc2d bcd27ff8 3d6da1c0 3cbd4c49 3d65b8d8 3b55a24a bcc26032 bb9a30bf 3c99f936 3c4adbf3 bd616430 bd1656b1 3cf4ba6f 3c5caaf3 3d39f55a 3c72d476 bbffc303 bcbcc6d5 bc94ad01 3c23ad4a bc3c2133 3d41c22f 3d5fda52 3ba5e6ba bb8bec12 3cd12a17 3be7b7de 3c98be61 bc82b573 3c98a1d6 3d1dc344 bd36624a bd3bf912 bc1831e2 3c48d8f2 3d061765 bd1e8f08 3cfd8288 bd962ac0 bd841629 bb19213a 3cef8fe7 bd8ec31b bcdffd21 3c8c7586 3cd695ef 3c1dcdf7 3c89fb26 bbd669ba bcc32f36 bd862561 bd4add62 3d23dca1 3dde0356 3cf2e6e5 3c3d7ca2 3c6fb2f9 3d8cb4a0 3d622fdf 3b442fc6 3d66eeee 3b0f20f2 3b788cd1 3b939b44 bcbed000 bd786832 bd310313 3bfbef26 bc5c9067 3bf4c418 bd6e187c bd5276af 3d70279c 3c1531e1 bd814e8d bdbb8f95 3c954265 3b86f61d 3cd0b8a6 3cd5e2ff 3ca4a6c6 bd8ee69f 3ca98c1a bc6e57eb 3ccded8e 3dbee672 3dae90a4 3c7f7fbe bb6e1f56 bd51b785 3d5ef1e7 bd96c6ae 3d7570bf bd07f578 3cc2f5ce bcff897a 3ae8112b bce35053 bd1c6203 bd21727c bd7e43d5 3ce4c1cb bc9bcbd8 bd538844 bc1c04cd 3c1d07cb bd195635 3cebe7aa bcb21e07 bd104091 bd3954f7 bbeea603 3d7ee4f6 3cc1703b bd80806c 3be4d678 3be9ad85 3d7431bc 3ca8a3b5 bb807c61 be2c013c 3c1913a5 3c11dd72 bbbb485b 3b778cf5 bd3597e8 bba0bc42 bc374f4b 3c937c65 bc94fd85 bd6f3be3 bb03c91c bd9eb70d 3c438aee bda0627e bbae513e bbc9c01d bab8a433 bc817c49 3d05ea1f 3c5f972a 3b4ec18d 3c83b274 3c13a1bd bb803a10 3b0db96c bd594f1d bdd3db28 3c19793e bc255cb1 bd52e5c4 3b8bc486 3ce9950b bce4ab5f bd144fda 3c1d33a4 bccf6d2b bd2c9988 bc9af83f 3c97e807 3dd0dfaf 3da6f3b3 3ba62f8a 3c3ff825 3c8b8e89 3c44f8a8 3c9710ae bd097efb bd7165b7 3c6e65d9 bcc20985 bd42295d 3d8323a4 3abaea52 3d27a44c 3c76e705 3a74ad8e bd3ff883 bc72a65f bca483ce 3d2d75d8 3cabeca8 3d1c0c92 3cbd0056 bc853794 bdd4de4f bd5b0314 3d813995 3b0bb0ea 3d2113c3 3cf28bea bcb34957 3d7340d6 3cb61146 3cb05908 3d851252 3cce163c 3da2f68e 3cb05ec9 bd849525 bd0a91a6 3db95fae 3c4b0813 3cc55ce4 3be1f4d2 3d9ba703 3d5f57cd 3dcebaec bcb8bdce 3cc9c774 3cea43e8 bd965475 3b9d74e7 bd6f070a 3c4f64a5 3e02e9f2 3bd2731a bbddbd36 bd0f0452 bb75cf1a 3b03122f b9c0b6cf 3dba0191 3bd848ef bd0237e0 3ba3123b bc559361 3bad469e bd018c16 bc03ea74 bc4eb954 bc04b01d ba8ae260 bbbe140d bd0b9e18 bbffe757 bcafa738 bb11e998 bc90402d bc6f08ff bbe304d3 3c7d4271 bcd973f8 3d4fe188 bd3cdb72 3a3cf36d 3d04f569 bb38d858 be021799 39e6698c bd2a8444 b8f542ad 3a9f35d4 bcfb4fee ba59c5e2 bb8c6674 bd8ff1bc 3aa98d79 b9bf5ee5 39f14b1c 3cd1afa4 bc4f5b50 bc49185b ba6f418e bca8528c 3c358ac0 3dc870f4 bcc49f9d 3b981164 bcb59be7 3bd26ff9 3c1f7c2d bc689d73 3a7a99cc 3d2404b6 3d19b5e4 3c0792dc 3d175a13 bcaab805 3c5b9028 3ac7c205 bdde1166 3d9c4900 3d3887d1 bd676fd2 3be7f531 b992045a bcef4d63 bd1c2878 3ccdfe95 bce2f6bc bb005343 bc963dba 3d1427ec bb98e3b0 3af727ba 3c8c7326 3d230fd0 3cc8b6ba 3c5d7fc2 3ca26afd 3abcbec3 3c17ab71 3c0533d6 3bf674de bd0cb167 3ce2246c bdad13c5 3d03c5c9 bc9f138d bc4fa0db 3c873b4e 3dce38d7 bca121c4 3d5f224a bcfe4fb4 3c1a7dab bc93b2a1 bc2d092d 3b37a6a9 3de8db46 3c08b1f5 bcb15760 3dcf2137 bd4f6211 be028578 3cacc4d9 3d6830ce 3c60082a bdf4dc92 3cab25ac bd4870e9 ba8e6499 3dde66c0 3d0d10fc 3c80bf0b bc05ec2b 3d61add2 3b7f1af2 bcf8be16 bdecff97 3cdad984 3c62116c bde14b1f bc5fd0e6 3c62e12f 3c95532e bc590f75 3ba8cb26 3c7b8624 3d7e847a 3cc9cf20 bceee03e bcb587e3 ba859989 bb06cad0 3ccea6eb 3c1dfa0c 3d9a3103 3cb35998 3d62f9e8 3c2d0394 3df43315 3970e1e7 3c299a09 3c3fa7b4 bc90dcd8 3cd94e0e 3c59be30 bc01e3ca 3d96e9fc 3d7c54c1 3bca9045 3cc2d0ee bbdad068 baa6e666 bc0aed3a bd97f713 bd4978ea 3c8e9558 3d349b7b 3d73726e 388bd3f2 3d13daef bd94d94b 3dd08d60 bd072cb5 3c1d3002 3d449aa5 3c48aac4 3d3a0560 bca1a9ca bdb57b37 3c4cb2c8 3d0d5585 bc2c0485 bad493e0 3c246bee b99379dd 3b262fd6 3d241132 ba59720d 3ba75fb2 3d9677f0 3c78f769 3dd54764 3cac28a1 3ccb2bf5 bc0eda04 bd8ca5f0 bcd25b13 3db6558c bd11dd53 bcaeb6cf 3c9b8b69 bd42f584 3bbe837b 3bb99430 bcdafc04 3df9bc23 bcd78245 bdcff808 3a6945ae bd7c107f bc5aa754 bdb9cf9b bb70a3bb bd71cc27 3ca85785 3df5c190 3cdaec41 3db15423 bc672a87 3d325e14 3c1ac248 3c405f63 bdafbe3f 3d92d448 bba6352d bd83ad0a bc2e4d48 bbd78261 bc4cc443 3c0f3c2a bb480168 b9bca246 3de6d402 3b2f2f6b bb8c7b29 3c6074d1 3b885c22
conv3.4.weight 32 3d314c63 3d293da9 3d7a467f 3d3612fd 3d82cae4 3d522fab 3d3c463d 3d8a7611 3d05a753 3cc13933 3d549267 3cd8919e 3d18054c 3d43d34a 3d5b14f2 3d4fe2a9 3d46728b 3d82f2c0 3d13101e 3d6d5c4a 3d16b170 3d589970 3d94c6ee 3d42544d 3d4513d5 3cf7bbe4 3db52efe 3d27d418 3d310b0b 3d899d22 3cf79d8a 3cf0367e
conv3.4.bias 32 3d86aa71 3d6b07f4 3cf99f4f 3d7cddab 3cbe9b57 3d2e4cd6 3d83a833 3d50f585 3d8db4ee 3dcded09 3d6ecd2d 3da7df1f 3d38846c 3d426fef 3d92d32d 3d8c6512 3db4bcff 3d31622e 3d57a979 3d0f3f5e 3d6b52c9 3d47e3ca 3d22433b 3d775de0 3d825d0b 3db15b29 bc80ed00 3d5632a4 3d9ffc89 3d107572 3d8c5047 3da24540
conv3.4.running_mean 32 3cb3cac3 bc3f8bec bcc8f4ff bc834ec9 3a0b2d16 3c4ff110 bccc7ccd 3b9095e7 3c9c5d89 3c74c2ba bd062ab6 3c702650 bcbba4c4 3c0a1956 3b40950a 3d20a5d2 bbb5d3d9 3c99d633 bb86c965 bc8a013d bcd9f3d6 bd2225fc 3c0d5136 bc59a158 3c2689a4 bd071597 bbc29e15 3cbd908d bb6f36ab 3cf73a85 bbd48b35 bae8e059
conv3.4.running_var 32 393b31d7 3a00d618 39094d20 398e92e8 39372485 3924679f 39a51551 39aa48fd 3965b14f 3901b052 39382c9e 38bc401c 39bfc399 3932110d 3930f120 399cefd3 396620ba 3999a637 38f93f05 39b0d720 39b5577e 396d3a7f 38d368b7 3934eb48 391fd7c1 38c63a6e 3926d075 391c1463 395f0d4c 39206640 39462109 3950f08b
conv3.4.num_batches_tracked 1 4a0cd818
conv4.0.weight 288 bb34f240 bd330ecc 3ad681e7 bc6bb437 bd7e451b bd01dec0 3b3d993b bda9f10b 3c1eb8e8 bb1e0698 3bc9dd82 3abc728d 3b4e54b6 3e351ccd bc2169b5 bc7354fa 3baf88ab bc2d8e9b bbe5fe1c 3e000b48 bca03c19 baa1617e 3ce7535d bbf12327 bce0b1fc bd9f87c7 bcd3edb7 3d6aa3de 3be34b0c bdfd8d90 3dc72d6e 3d893bed be10ac71 bbac94fe 3d389d70 bc21d741 3cc6b444 3d4918b8 3c595537 3cf1980d 3daa5efc 3cbfff10 bbdb5277 bd23b63a 3c0fc844 3bad44c3 bc8a707d 3b8b7e31 3b3133c6 3d919496 3c2c2637 3c6d0730 3da01c38 3c7bfa41 be0af857 3ced95b4 3d475f5f be1cb9ef 3dcd316f 3de83d27 bc3ece5b 3c02ef4f 3b5bab1a bc254750 bc2524b9 bc7b2bc9 3d880173 3dfc0c94 3d66baf1 3cf2c693 bd30fbc5 3cea6ef4 bcb2aef9 bdd499fc bcfd64d4 bbcd71fb bd000c69 bd099ea3 3bcd7e7d 3d915c5e b979e829 3c8739cc 3da8d954 3cfa9d41 3de66a10 bd98a32b bda995fe bc8b1f5e bd9e6412 3ce2b53a 3acede3c bd57ec49 bc8e94be 3c47d79c 3e1a9337 3d0594d5 bba8645e bd559cbc bc1d22dc bcb34bf3 bc1e2807 3d0be90d be1811f7 3d1c74f5 3d0e866a bb81c76f 3d8e6bd0 3c5eca68 3cb2f929 3ddf409f 3cf8f9c5 3c878b64 be99579b 3c9c9932 3d217a73 bc976f42 3d0115bd 3ca585b0 3e17864f 3d489e7e 3c45e641 bd503483 bc148201 bd83d142 bd1cb516 bd692438 bcbb2f7f 3d44bd8c bcdfb3f1 bd3a6d8e 3e75ceaf bd95e06e bcb32a18 bdd7b073 baabb9d0 3d21dde8 3d0b4f83 3d1c532f baa98449 3e017082 bc055f86 bc2563c2 3cb3c412 bbef35e6 39721179 bd935964 3c0f4b15 3c89808c be0ef341 3ca5c4fe bb77eab2 3d338459 bc58612e bc367893 3a8e8747 3c46eb21 3d832634 3ddfe985 3bc3ea3b 3c4420ff 3c354beb bbfa7094 bd9f4b38 3ca1c8c9 3b370004 3d66a56b 3df7d263 bd45e466 3cd3f8e2 bd85e51d bca04c26 bbb939f1 bd7b0aa2 bb0996fd 3cf44a0b bc8bcc83 3ce5b604 3c041b47 3e1f413a 3b8105b7 3d30a6f9 3e1d78d8 3d279a2a bc954aae 3d7584a3 bcb090b9 bd20f625 be145700 bd31057c 3b96c888 3cddefa8 39eca861 bbb23822 3d8b1762 3dbe388b bb67fe1c 3c63a790 3ceb0289 bd00b616 bd89f704 bc568bdb bcd3ca52 bd362cb5 bc948418 3c0e0da5 bc355d47 3c228772 bcedd6a0 be232d31 bcd4abc6 3cdba6b6 3de222c7 3d052d62 3c9b7134 bbe593ec 3cdb5985 bcdad078 bd9a9b6a bcec7b10 bce84eb4 bd127dc8 bcc66d57 bc58d3fb bc31b058 bc90605b 3c9c54a9 bcb240c0 bb411f03 3c9a1f08 3d80cc40 be1ffd54 bccd83f3 3dd604a4 3b965e9f 3cdc6da7 3d0a2629 3cb118e6 3bf6d47d 3dd5f415 3ba4bf0f bca95748 bc81fd8d bc8ea60f bd423410 bdf2de15 bd408c49 3da2be5a 3e1b8585 bd27c0a5 bc49fefd 3cb6e4aa 3c966987 bc9ba2f6 3cb6efc0 3d55993e 3d363f5d 3dabd9b6 3ce46b04 3d43316c 3c5de78b bc9d60f3 3d1b718a 3d6e20dd 3c832d8a bbe4ecf9 3da660f4 bc55252c 3c85d076 3c0a2c3b 3b912396 3c5b8069 3e343e98 bb8e6321 3b146b79 bd9d547f 3ba44aac bc95fc8c be04bb8b bc1891a3 bd56aead bc9cbdb8 3ca42ddd bcdfaf8b bdc13751 bd1fdf51 3c627598 bacd5ff1 bd788d29
conv4.1.weight 32 3dc8c551 3de6be18 3da7304f 3dea1c8f 3d847c55 3d9c279e 3e065702 3dae2321 3dc33444 3e0d9084 3dd5c2b6 3de8433a 3e1e8958 3dcca9b0 3e10544a 3d9c56de 3db5656a 3d995304 3dc285d4 3dc69fbc 3dd91550 3da5d9ae 3df918dc 3dd3b1d4 3df3c5ff 3df31140 3de37158 3dde8b67 3dc2e7e2 3e28b114 3e006569 3df9f9ad
conv4.1.bias 32 3d80478e 3df75218 3d34d8eb 3d44ddd5 3d8a2efa 3d4eac52 3cebb6c6 3d92f703 3d800529 bc151dca bd9bb5f4 baa08857 3da0a626 3d9b8f38 bc583bd8 3decfd2f 3d7eb377 3da3a79f 3c0338c4 3d6ce94f 3e12dd2b 3dd07d15 3c4e594d 3c579063 3d34c03c 3b761b5e bdaaf128 3c3f4179 3d22a117 bd0a023a 3d026e8d 3d25002c
conv4.1.running_mean 32 bc722b55 3c135121 ba096292 b839595e 3bdcd210 3c0e3d39 3a14a03c 3c5a9824 bc292cb8 3ac1bcd7 3b77c221 39d64acf bb328be2 3a05efd5 38c5ea81 3c841c24 bc4a3429 3c1fa7dc 3a8f7803 3bb06f1c 3ae97992 3c3f2bf4 bc172536 b9197205 bc8863c9 39f13130 3b7f0ca0 3a1acebd 3ca2f8bb 3c17d940 bb3b487e bca5822a
conv4.1.running_var 32 382f3ca1 383acea4 3790aaf9 388a5dde 382bfc65 381a9f6a 38bf70f5 38fb87be 37f25f02 37daa344 3809a476 37eb62e2 3858c669 38c8dfbd 386389d8 38a8c7bc 382f4806 38a6d902 37a73a3d 3898d1f2 38843d11 38ab4dd4 38bc82dd 383a1cbd 3858368c 3804860b 37ec6d8b 388f3b7f 383a732d 386dba0f 3819c45c 380fe370
conv4.1.num_batches_tracked 1 4a0cd818
conv4.3.weight 1024 bda12568 3d1abed1 be0180e9 bccd2d24 bcbc9280 bbe61085 bc9b0945 3cf17803 bd4fc60f bc284c41 bc1304f9 bac14780 bc289a15 bcf86721 3d91e800 3c8666f7 bc6139a2 3aa59f52 3cdc1222 bb312e12 3e0a992a 3c11c238 bd1354cc 3cb5f6ae bde5a1bd bacc5bf3 bc9403fe bc0b1064 3c456e34 bdb04911 bda7c846 3c3d858b 3d24bd90 bce90ae1 bd8f3a98 bd22ee35 bd6ce98b bd460bd1 bd64a49b bac117b9 3d336e58 3da4250c 3d0d607e bc537513 bcd3aa7e bd91c7ab 3d24728c bce33053 bd80b36d 3daf999c bd1660b2 bcce9e72 3d8b80e1 3d8bae37 bd99e5c5 bd3b1789 3cffd560 bcd53b94 bd2fe64e 3d789a39 3ba1edb2 bd5b1a29 3b93c910 39a2d702 3c919727 3e1256b8 bc0845f7 bca12d04 bd51b1e3 bc2fb0f4 bc95e8ad bdc1f9d3 3c93178e 3bcec1c8 3cd745a0 bc11f313 bd068716 3b1f0e2d bc51befc bd9f3091 3c5f8a42 bc8b3603 3caec05c 3d0fb8f5 3c15d590 bcb091ed bc7cf55b 3d169551 3b83c270 bc9b9167 3c2c51e7 3c1b6592 bdc2a417 bd5a3abd bbb267e5 bdce5009 bc330280 3bc182d3 3b5b0d9a bc521e71 bc8b77a9 3b91f21e bd66a1df 3d9e2f5d bd2480b7 bc039adf bd0e112b bb56abc3 3d3d3c7c bcff98cf ba3eee1c 3d874896 3ce5b68b 3d857127 bccee3c1 3d01832c bb86ec35 be25d718 bcb756f1 bcaff699 3bdcdc79 bd1c71b2 bccba5f1 bd9cb82b 3d243afa bd21de47 bceb3f27 3cdc0af0 3aca10d9 3bd1d1e1 bcafa673 bbcacc30 3d3fa506 bb99100c 3d23de41 bd032107 3d01d139 bb4270ed 3cc00747 3ca4fd8f 3c31de9c 3c981257 bb19db46 bc0e370d 3c98db56 3cab4c41 3c9a167c 3ceeac56 3b84aafd bd931e29 3d48d170 3c37b7b9 3d3469b5 3b4303ab 3c9d3b0d bccab441 3da9e9f8 3ca9ede9 3ba7d4c7 bdc1939d 3b3d9c11 3ae0f165 bd1220d9 3d4ee370 bd0d81d7 bd6ff25e 3d343fae bdd0dc0c 3c98705e bb7e526a 3dd2d7f9 3cab5392 bcd5424e 3d3d1ab4 3ce2471c bdc8adf7 bdc413e2 bd40f5b2 3b08166a 3da80032 3d52bc25 bd6236d6 3a1ab1ba 3d618a2f bd33d948 3c9a6d21 3db59d32 bb7497b4 bdb860bb 3b1b92c6 3d15a8d0 bdb2db1d 3b6d65da 3c151323 bb006261 3d2945fe bcb5d18d bc83870f 3ced0230 3d8ccd4c bd8a3013 bd937a7c 3bf9762c 3c7e7aac bd13c65f 3d09c3ae 3d6c66b5 bd4a5187 3abb3a21 bd0be47c 3ced4772 3b93b1b1 bd93895a bcb5d12a bd9b1749 3bcecdd7 bd9d5380 3c2521d4 3ceb7cff bd7dcc46 3d3f00f2 bd928392 bce97ec9 3d999f08 bca7b09c 3d9de4e1 bbfd1030 bd1146f0 bdbd1f0b bddb64d0 bd126634 bcc67075 3cbb6ac5 bce1fe9a 3c004a13 bda79165 bb1e6801 bc3adace 3d31dbfc bcb23f1d 3da88a1e bd778822 bd6ee4ae bc06f74a bca50cf0 bd9ab69f 3ccac655 bc36ebd7 bd9fa9d5 bd97327e bc8cd14a bd8a8343 ba0b49c8 bd69a007 bcfdeaa5 3c8c756b 3d20edda bdb02af8 b811c2e2 3d1a77dd bc4606b9 bc99899f 3d0c3a36 bcaed2cd bd34640f bcd3343a 3c625a7f bb6a7452 3daeedf1 bcc71b97 bc6c8cac 3cf2134b bc5f6e3c bdc462d2 bc478d64 3e3f6423 bbe1234f bd5fecf9 3d419d28 3bad4995 bd3e43fa bc100a2f bd060e00 bcca803a bccbe7db bbd82003 bba78ac9 bcc277ee bce505ca 3b3a36e6 3d223128 bbd7834f bc8b6774 bd6981ed bc375528 bcc6b43d 3d3d82c0 3c039f96 bcd1a15c 3c7a8edc bcce93ae 3be01b99 bd18427b bd916bca 3c3948f8 3c7d412b 3b5d3aa8 3d2dd2a9 bcd54d9e 3c3f6b82 3c901864 bcf02a2a bb7bccb5 3d059d4a bd636630 bb73b202 bcf16ccb bd0afa66 39be0e6d bcb7e8a1 bcd0382a 3cb77a6b 3d21ebe9 3db0cbdb 3d74b96b bd4e8501 3dad0e4f bd7c8304 bc5a4e89 3d1d9a33 3d58605f 3d562bfd bd4807a0 3d9b5655 bc615c03 3a140d3f bd69eebc 3b9b8794 3cf68695 bd2855c9 bd9db547 bb4c7ddb bda5f0ad 3db1f5f3 bd988bd5 3d4f108a 3b9d148f 3d63b727 bccd6a51 bd7e5a23 bcf8942b bcdf12d4 bc982854 bd15803e bc64e455 3dbf895d bbdee054 bd1e7f0f bdf0c83b bbce4f10 3ccedbdb 3c934151 bc03e5e2 bcd6bd8e 3d8d80ea bb3f4b83 3d27f160 bd4aa573 3ca16b8d 3d85e8be 3d2841d1 bd1a1fd8 3d25048b bcbfaa8d bbd4ac6e bd63d63a 3c12f9d0 bc4ca115 3c569e01 bd1acd74 bc1acfdb bd92264a 3d341b64 bd299255 3c4ead5a 3b1dfa6b 3b1974ca bcd805cf 3d739b38 3cfcc45a bce2e75c 3ca8876c bc0687ae 3bbec5cb 3aa78294 3d068af7 3de00334 3c37174b 3e1a4979 3d11c9c7 3df2b9e6 bd1c33da 3ab8d3ae bd08ca8f bd535e70 bc7ff6be bd00f72c 3cdc3180 baa78300 3c5e6698 bcd8b835 3bb3f785 3c830d2c bd7905de bdb21aad 3bdaa56e bd31ab1c bc289803 bb911b0c 3d6bc239 3ce175a9 bd1248dd 3ce72522 bd75c957 b9bb6836 3de6cc0e 3d02bba7 bcc0ec95 bd27f356 3d0e8d70 3c53716e bd18e400 bcb98d24 3dbc86de 3d007271 bc516d22 3cd092c0 bde1b584 bc06c9ef 3c752b52 bcce18c7 3c1db659 3d085c0f 3d5e2b14 bc8b7332 3c9e6fe2 3c5f236f bd821076 bc3ba46b 3d2446d8 3d1cf1bf bca31654 bd963ccf bcdef60b bcf4d0cd ba75f522 3ced15e0 3d2e7f3a bcf1fafd bcac6f8b 3c6b7164 bdcd65d7 bc9bdbc5 3d673513 3ce62fd9 bd647b1a bcddf6e9 3ca2bc4b bdbad233 bd29da84 3d85d54b bd8da6cd 3d17cc91 bcd805ec bcbdc37a 3d4172e6 bb08c9f8 bc7f2e93 3d58e85e 3c19f1a1 3ca6fca4 bdf20144 bc791758 bb9f7c8f 3cb7dc33 bc7b0745 3c0885f4 3b2320db bcf07e17 3ca842a5 bd3dfad8 3c3ba05f bd95edc4 bbcf49e3 3d029794 bd9c10be 3d40174b 3d5f05b0 3c19d025 3d240db9 3dfc5f2a 3d1d9b18 3ce25d4c 3d2ed1a4 bc810f40 bb4dfc62 bcda95bb 3c852826 bb3828f4 bdb45c13 3c492b9f bcb4aecf bd83492f 3d423cd8 bcc692b9 3726057b bd69b10b 3c18dd04 3d96c6f6 bdb24f54 3da0df8d 3d9df63f bd82e93b 3de6adc0 bd2883dc bd8d9e00 bd00d9e9 3d5e895e 3d67d660 3d81deb1 3d8d1341 bc04f2cb 3c314027 3d5fda89 bd72d7bd bd50915c bcaa966c 3cc5f7e1 3bb47ba4 bd4e3857 3dbe7b53 bd53bcde bd616e4d bd51aec0 3d417732 3c9b356f bd542d06 3d41f3f9 3dc5b748 bdba1c41 3d4cc91e bdad4371 3c43968a 3cfe6ded bcf5e599 bc465a55 3d1c893c bcdbd94f ba06a6f3 bd298192 bdebbb7e 3cdc1347 3bd2f533 3c1dca9f bc9985ee 3bc0ea55 bc74dfd4 3bac6805 3a7f0500 bd137cff bc82dcb3 3cd2a7ed bcf25555 3cd16868 3d40de4d bd018362 bd192899 3d446203 bcc4a2f1 3da56bfc bcae7fd1 3ce003e1 bd0d0943 bd58724c bbe435d4 bd775885 bd2117a4 bd6ecdf9 3bc3e2f2 bd4df8f6 bd31c5aa 3d2a1d63 3d5a519a 3d3698de bd4f4196 3c82aea2 3cf73495 bc431688 bd0c29dd bcb501bc bca94a93 3e180f01 bb67188c 3d9ba178 bde0f759 bcd17359 bd3858b4 3e2169e5 bc0cb312 bcfbac31 bc796af5 bddfb556 bb2b53e4 bd75bbeb 3db92c6a bca8e207 3d8016ce bc970e5b 3c441550 3c28aca4 3d6dc1c2 3c34befe 3d6b3ae4 bd8df4d1 3c55ebb2 b88981c0 bd8136cd bd31d134 3cc6411d 3d5e80da bc821ef1 bd7dd691 3c4d2f2f bc5bd7c1 3c75f60e 3bbe2929 bd4ef45a bd74e0ff 3ce96e76 bc36d160 bd061f8d 3d57bded 3bb14fa4 bcf9c682 bdb7ec7c bdc7b9a7 bcd0d66a bae0d591 3d2e003f bc3fff65 3c9986be 3d048655 bd1a8b73 3dc0e626 baca3dba 3da01587 3d118ef4 bd8d1531 3c6580df 3da7dfcf bd87f76d bd5a45d0 bc8b72cf 3cc01ecb bc3bf361 3cb5b261 3d58deee bc851ef3 bcdf1fce bd31a2b9 bdd5538d bc82841b 3d5272ec 3d9f4b63 3d028f0b 3d3c065d bd005fd3 3d51055c 3cd76a73 3b1884c0 bd5f29c0 3cfc2478 bce0a83a 3d06adea 3b11d2b8 3d63ab47 3d1aaa67 3d1166cb bd5704e2 3c43f746 3b8f8a87 be0b729b bd5c006f 3c71c84f bc3519d7 bc46c339 bcbd2265 3c30036d 3bf2d54b 3d176258 3c67038e bce96929 bcb7bbfe 3c64b666 bd20ceb4 3e1090dc 3ca72399 bcd505bf bcabb049 bd127728 bcad3e3e bd68823f 3d36e8e2 3af50556 3c097539 3a21d87a bd303d56 3d18a78b bd292861 bd7611a6 bd4b26aa 3d7059c8 3be1d4cf bd68ee16 bd5dc11e 3cd69195 3cf086b2 bbd97b0d bd32718a bc24ea06 bd3e442a bc106f7c bd39022a 3c19b6b2 3ccde41e bd283ffc 3d58e7f8 3d3f43fd 3d7e77f5 3c9b3557 bd4d2475 3c692e93 3cd7d5f6 bb3ccf97 bce89030 bd711b6a 3d438278 bd7f58fc bcc352a3 bdad0049 3d82e114 3d7e29b2 3b76955b 3d870f89 bc9cc9bc 3c7d8dac bd111b75 3d9da637 bd741215 3d32dd68 bd3c99d5 bd4a6051 3e0241c1 bcf1a3e9 bb710331 3d423fdc 3d48f3c4 bcfa49c9 bdca04ac bd5e5138 3c5f8cf3 bc9bcced bd85c58f bcdab609 bce6c22f 3d702959 bca56d38 3c1e6417 bb05cd39 3d21590c 3c9a0e0a 3c6757b0 bc43f2b9 3cd600d6 bc980e99 bc585f02 3c73e45a 3d1a3716 3c345f12 3c41e2a4 bd47bccb bbc6cd83 bd967338 3d5cba97 bd349443 3d12348a 3d594e0d bd7c95dd bd0c88fc 3d274d49 3c0cdd38 bc5c5fb2 3c905211 3d8c83f9 3cfcce6a bc1b46d3 3cbeb47a bcb85568 3c74aabe 3b0160bd 3c44fb9b bbac6b0b bd64bfd6 3c2afa58 3c089872 3d7cfe7b 3aad8f3b 3c4cef71 3ad9c90b bcafe36c bd69f815 bd23f4d2 3b947b9d 3c96492b bc84e18c 3cad18ee 3ccc5cf4 3cf5b272 bc6c16f0 3b8950b7 bd330fb0 3c9dc6e9 3c950051 3c6939df bc9ca4c0 3c92a8fb 3c88da09 3bc5013d 3ca6dedc bcf03378 bcb5b627 bc3150ba 3cf7a9b7 3ca0b034 3b1397ee 3bda81a0 ba7af847 bcafa692 3cbfe65b 3bf13532 bd1c73c5 3c21109a 3c789d4f 3b9b2258 bb3d43d2 3c9c8b85 3af8ebf6 3ced9748 3c7c579d 3bbe39b3 bde744a5 3bcfb863 3bfecbd8 3d90fd5d bdd5bd8d 3d08b1e0 bd3917f0 3c8b5ce5 bd4db014 bb8c5d7a 3d079a4a 3ce855ab bcc41e6e 3cf8a04f bc2106cc 3c912358 3d475462 3d7f4ec7 bd671413 3d91a0af 3d892114 3d26e96a 3daa1e43 bdb8086f 3d07ab8b 3d053380 bc05badb 3d6460ca bd470571 3ca8e915 3bc5e5ef 3cad6ed2 3c15a797 bce243b6 3cf71e01 3c989878 bd8fd803 3c07ef9c 3ae38069 bd693a2f 3d53b11f 3a96b311 bd8be136 3dddd8d1 bb9cd470 3ce8f2ce bca92b92 bd624c91 3cee6357 bd9557b0 bbc4c79d be0661b1 3d6bd6a6 3c89097d bcc07f97 3ca70148 bc56afb0 3c43a3e0 bd9c8ca3 bcdc6042 bc244935 bd08bed8 bd271f69 3cabd268 3d3b5a3b bd2d1b67 bd2bb9b8 3d10289d 3d6e88d2 3d3df327 3c371913 bca45db8 3d1bc085 3c76e947 bcf505f0 bde9fbde 3d8beaf9 3cbc2853 bba4d882 bd78e4a4 3de0573a bdd0fa43 bbe488b5 3b05e5ad bd73820d bd645991 bd528722 3d76907a bdb7c295 bd2d72d5 bce2ee84 3b11fb46 3d94c34c bd91fcea bd30fcb2 3bcffe21 bd957bb1 bbd61269 3b528ab2 bd60732a bcc1eda4 bdf3ed9a 3ce0ad4c b927eb66 bd082615 bcb5a49f bc711d63 bda184c5 3dca390a 3d157935 bcede07e 3d592655 3cc781db 3b3ec9ea 3e019031 3cd0e39d 3ca7e637 3da272e6 bc247690 ba663142 bdcbd1ad 3d46daca 3d5c86c6 bcd564a7 3d0c1fc9 3d91ebbf bcb1d7ec 3ce3819e bd157971 bd243683 3c8e5e9f 3d122ecc bd21d9c7 3d0eb1b8 3bb72419 bcf6ab15 bb66bd09 bda8bf82 bd29da81 3d0439b1 bc3d983e 3db52bff bcdbac2e bd0c803b bd1823f8 bd00c8a1 3c621eb4 3d419924 bc3dad58 bd4d96f4 bd390cc5 3bce7ebe bcf01adc bd2bbe4a bd9ba984 3d9a1dd1 bc052feb bcd8caa6 bc012e49 3dc76bd0 3d010ed5 bd88dd10 bdbb04e7 3c630125
conv4.4.weight 32 3d6ad463 3d6f9330 3d45b1c9 3d6d55f3 3caafa53 3da6dc16 3d6492a0 3d33673d 3d6fcc42 3cdaec41 3da2d98e 3d8578bf 3d22f2d1 3cd46394 3d809f74 3d6bd266 3d9816b5 3d5f465a 3d19357a 3d83e125 3d82bf7b 3d7ab578 3d75335c 3d0116b0 3d699b44 3d358df5 3ca61384 3d6dfd71 3d865929 3d90db15 3d475cab 3d7d5491
conv4.4.bias 32 bd0b43ee 3b164865 3c2f5838 3bb43bd5 3d8d2819 bd300996 bc9ea47b 3d3effa2 bc27e769 3d63ba17 bd73de5a 3b80884e 3d844eb3 3d8c0cac bb5aacb0 bc1ea05f 3d8b4794 385a28ae 3d88c85c 3ac2c864 bc27d9b3 bcf2f46a bda39c2f 3d6f351e 3ce1f955 3caf2e9b 3d88fa8e bc8382f4 3d1f674b 3d476fbd 3d8a3ce1 bbb9d1a5
conv4.4.running_mean 32 bc2d1ce8 bc1da657 bc9c70a3 bc0018a9 3c38dd06 bcd0767c bcd2d933 bd27b834 bc292fd6 bc91720b bc5674f7 bb94e5df 3c7cea89 bc153009 bc7c35ce ba76faef 3bd676de bbbd28e9 3c2612e9 bc0b7ae4 bc8d4522 3c201840 bc8141b3 3c55396d bc591cc4 bb4670d1 3bda28fa 3cdc1dab bcb27518 bcb4b9bc 38904c6a bcca5b80
conv4.4.running_var 32 3a0707d9 39c3a9a0 398c7312 39b213c3 393bb095 39db078b 39ba95aa 3956f395 39e75b35 39194c69 3a035615 3a1f7014 3a048e3b 3987091d 398e5c49 39c6daa1 3a5a12f4 39891991 3a4fedc8 3a14c993 3a360c9c 39a697b5 3968333f 39a33db1 39747e02 3953e1af 391053d1 39d671b3 3a0dc810 3a1f3756 3a0d623a 3a09def4
conv4.4.num_batches_tracked 1 4a0cd818
conv5.0.weight 288 3cf4378d 3d37394f 3cebd9fd 3d2bde23 3d88e263 3d514c6b 3cf7f174 3d1f787f 3d02bb09 3cdc65e2 3d129261 3cc8141e 3d225f4c 3d812dbc 3d25e539 3ca2fa24 3d17778c 3ca4703e bc9f98c0 bcd3aee7 bcba224c bd012453 bd4c6300 bd383cae bcbc7a12 bd065b47 bd03bdf0 3cac9e61 3d036016 3ca322ec 3ce60c7c 3d5d0b24 3d158c6a 3c840ba5 3cfc4314 3cbfada1 3d7a4395 3ca807a1 bd450be9 3d0cda42 bce09e64 bd86cc8b bcb979dd bd33dbc6 bced5ed9 3d114e77 3d517035 3d17d2c7 3d3723a2 3d8d4ed9 3d54e0c9 3cee0b9f 3d21339c 3d067208 3cba23cd 3d283cca 3cf44afe 3d14ff00 3d862059 3d41f075 3c96cc85 3d0e2473 3cbd1467 bc802ed6 bcb8a55e bc854a10 bd1662af bd5ce087 bd18ab93 bccb74b6 bd2369aa bce6e680 3cd361b3 3d1e0a8c 3cde9f84 3d170c29 3d7dcde7 3d23a2e7 3c9be4d4 3d0ed7e3 3cb3c4fc bd09f72a bd6c5852 bd0b1124 ba8bbb0d 3bc49563 3c055be8 3cc6c129 3d8cefca 3d487a71 3cb9d907 3d022117 3cae821a 3d36ffd2 3d86a6da 3d347095 3d07d7d8 3d5380ca 3d0fbe3a 3cae1684 3d0f056c 3cbb56c0 3d192aca 3d8c8496 3d362179 3ca28b88 3d0751ed 3ce46e17 bcad9e4c bd244c11 bcdbde02 bd1eab72 bd84cdb2 bd384f11 bcbb84a9 bd1f4eed bcded4f1 bc5fcbef bcee914b bce9d8e8 bd2164da bd64f93b bd0f5cad bcdd0ed8 bd1172ee bbf733c7 bcae2501 bcf1c54e bc9dad00 bd1ba0a4 bd5a9216 bd0bb065 bce408d9 bd17e364 bcd22bdf 3ccebf86 3d105bcb 3ccc151f 3d23def3 3d86762c 3d328714 3ccb513b 3d327c0f 3cc7cbed 3d23ec58 3d5358ea 3cb289d9 3d3ad888 3d996f6d 3d30c2a8 3cadaa95 3d1e366d 3d0114b6 bca6bf2d bcefdf57 bc9f35d1 bcef0fe4 bd4dd582 bd11f1ff bc84a6af bce3f34b bcbf705e 3cd302b0 3d43fdb9 3d05eb8d 3d43ad50 3da75f77 3d3c2ce3 3cd02ba0 3d3a6997 3cb7cfd3 3c979677 3cffc0ba 3c9fb678 3d1ea1db 3d8c8c16 3d334640 3cc8bea5 3d367482 3cd023fd 3cd45c55 3d22563f 3cf4b83b 3d49c63c 3da16d66 3d60b37f 3cd3255e 3d5347f9 3d15ffcc 3c8af300 3cfab703 3cbce076 3d071971 3d5e045d 3cefc4de 3cd0493e 3d04d79e 3c54289c 3cc93eb3 3d376027 3cfad378 3d19c4cd 3d8af204 3d2c32bc 3cb821e9 3d031a49 3cc09f3a bcbba80b bd06e832 bced3116 bd1d5a54 bd6defd0 bd331038 bcc17d6d bd191ace bcc2f9d9 bcdc1275 bd215f2f bcb83136 bcbe6cc0 bd2b44c0 bd00371a bca0a6a1 bcb8d6c1 bcb0a5cf 3d092b6e 3d7b0d92 3cfc914b 3cadd079 3d0cec6a 3c1735d9 bc50042e bcda777a bc2a3377 3d542184 bc985bbb bdb0a734 3d5e9883 3c99e257 bd5c2732 3cac5a4e 3d218dd8 3c3261ae 3cd39307 3d20541d 3cbd3064 3d0bf0c8 3d6ee2f0 3d118c48 3c897d45 3cec0d07 3c7d958f 3ccd759a 3cc84844 3cb03d77 3d194ff2 3d808a09 3d325c82 3ce7e7df 3d50b46f 3d023deb bcd90e9b bd2ae4a8 bcbe56e6 bd2ddd01 bd8de26c bd271e3e bccfda9d bd28ee59 bcb603ee bc9f71ce bd159890 bcc09a9b bd1eb23e bd8bbedc bd3958c4 bcd944f8 bd2de302 bd013d84 3cca1aa8 3d1d5f95 3ce2bf84 3d3249bd 3d8dfbff 3d4e3b1b 3ceef31a 3d2a872d 3cf6448c
conv5.1.weight 32 3d34815e 3d4006cb 3d585b0b 3d481d4b 3d7a3cdf 3d42f104 3d3c6706 3d398a88 3d6e49c2 3d506abb 3d46a2f6 3d608bce 3d80f61d 3da43403 3d432d8e 3d60ae37 3da7e7d9 3d40b1f2 3da65ec3 3d65e4af 3d6f3d3a 3d43ea0e 3d40da92 3d80460f 3d7d9366 3d25cc37 3d76b8b4 3d5b5747 3d7c79c6 3d78fe6e 3d5f3de9 3d644512
conv5.1.bias 32 3cb9c9e6 3d309ba5 3dda887b 3d3280cb 3dbd445e 3ce3d490 3ce46f4f 3de57a64 3d3b9987 3d8b322a 3cbca9e0 3d4e9270 3e225710 3cdaecac 3de11b39 3d1456a2 3deffe09 3e04b6fe 3e1ab287 3d482665 3d33ea5b 3cbb0408 3c5d2612 3e14bfc6 3d847e9c 3d184064 3d671fd9 3ce8f7f3 3d95bbb2 3e09fea8 3e40a856 3d307ce3
conv5.1.running_mean 32 3b448783 3bd5585a bbd16808 3bd49b32 bc0d4d30 3baaaaf0 3b8ac394 bc6315b9 3ba8244d 3afb968c 3b6d878e 3bf9d2ec bcaadfcf bc923cc1 bbbe25e5 3bb30f00 3cdb5d6d bba60c25 3cc66017 3befe658 3bf0a819 3b443303 3aa0b77c bc914253 bc1912fd 3b7b0980 3b0b3082 3b83d7f5 3c83cb99 bca3c121 bcb619a6 3be3e9c4
conv5.1.running_var 32 37d7f949 38343856 386b30ee 382223cd 37531b6b 389f0dba 3815a75a 383add6a 38115b31 375da83d 3854af41 388125f1 3899c262 37d8843a 37e1e9e1 38766c05 39b86cd7 37da354a 38e34b9b 38826d72 38bfc1a6 37e2ebed 3739f5e3 38670b1f 387fa009 377cbd7b 3715339b 3805b5a4 39366070 38e37299 388c4f0e 389c2b9b
conv5.1.num_batches_tracked 1 4a0cd818
conv5.3.weight 2048 3cb24a90 bc062cf5 3bfb0374 3c80486f 3d31e2cf 3ca9a47f 3c60fb0c bc37cec0 bc987fc7 bcb5e94a bc0efccf bd06d27e 3cf3d5e6 3c9ae9e3 3c8d2832 bbd08212 3e077b89 bc1ccbda 3e018c43 3d6357b7 bc97ee66 bb614292 bd1c41c4 bc53b848 3c009787 3d0759aa 3c6d37cd bd28bbd7 bd7c3fa3 bd0c9f3a bda2e1a3 bc2490f6 bc2ff35a 3cc591c2 bc161830 3c310bd9 bd909436 bcbd75c0 3cef2b04 3c2a4a9a bd29d2ae 3c64fbd9 bc67ef2d 3dbc0348 bb44c196 3b1f6829 b9938355 3c349517 bd17b8ab 3d065956 3deb72bf bda3b884 39e23a7c 3bc56259 bc30e2e9 bc9d0e36 bd3d505f 3d3ee8cd bcb85f6e bcb405c4 3a31f445 bc62eaab ba4ff218 b89b858a bc49fcd1 3d3196ef bcc19dbc 3d9f6796 3c8a0511 bd37431f bc40e25c 3d49468a 3dae6605 bbae4d4f bd9ccadd bc2c135f bd37a792 3d016683 3d84366a 3d676d27 3ccdb83d 3c16bfd0 3cc41f63 bc01d7e5 3e0e2d2f 3d715d68 3d21726e 3c7b6be9 bcca4da3 bb3ab45a bce3148e bdbb08a6 baf248e3 3cc7bd93 3d1042e1 bd5acbe8 3cfe88ac bc53f27d bc52e099 3bc8c6d9 bcbb1379 3cfa1bac bd982c4e 39cad6ce 3d059ac5 bd11856b bd847bd8 3d26c4cc 3d9ac186 3bbf4461 3cc4940b 3d37a9f9 3c451607 3cb3cd31 3c706a24 3d18183d 3d77dbde bc994de8 3c1e8ea8 bd16202c bc90efd3 bb327541 3cdd0c0d bc188442 bd4d7715 bc685401 3cbedbbb 3d49f04a bcf78c46 bc31a6b8 bc5a8770 3bcb6584 3c5253c2 3d66629f bb33faab 3d29d4fa 3bca5dbb bbf68899 bca1d4d5 3d01a910 bd12a324 bbcbddbc 3d15360d bc94fea0 3d98f757 bcc18ec8 3d157e10 3ccaba2f bd25c7a2 bba323d0 bc596bda 3d643e4e 3d775b0a 3c487884 bcb35988 bcf9ca88 bd6f32d2 3d3b127f bd141fc8 bd4abe63 3b9960e0 bc9518e0 bd9a326a 3bc35f42 bcd67c3b 3d63cced 3d2a84c9 3cc77472 3c517a23 3bc2b6ad 3d206488 bcb6f644 baadd546 bbd1ffdf bd57b547 bc809b73 3d307de1 bd9650f7 3cd9a081 bc8bea08 bc0f19ae 3d5be18a ba3228f3 bda93e55 bca5b710 bd55972b 3c472167 bb97e8cb 3aee6b19 3d90c3f2 bbd756d7 bcb44f9a 3bfdb2ed 3cf12b1a 3ab7d689 bce3b3fa 3ba2c507 bc733579 bc6dcc66 bcba882b 3ba3337f 3cc8fd44 3c305956 bd5f3e41 bc2afd51 3c8ce31b bc85b903 3be4d97e be280830 3d47d14e 3d8ad3d2 3df6c120 3d4784ea bcd694bf 3d46bb82 bc813fab 3b941b19 3cb8a370 3c57af43 3b8a089f 3d1022ae bb91032e 3d7290a2 3c47b789 3cf620b9 3d8059fe bd4d8cac bbfab4fe 3d040971 bc4b2567 3c579ebc 3b493959 bcc738b4 3d2d82ae 3d86426d 3aeb290f 3d00d12e bbf5ff0c bd158c72 bcc1ace8 bc559333 bd912a61 bc940ff3 3b873e98 bd9bcc0c bb9f4bbf 3d767e81 3d5a3598 bc734d71 3d043977 bcded6c5 bcc7a032 3c5a2f8c bd77ceae bcdf1489 3c3457ca bc80150d bcc915df bc8f0f25 3d6aa3f3 3d21ad06 3b6aeece 3cb3a926 3cc9becd bc0c8b81 3c6fecc2 3b57f305 3be10baf bcabb173 bd1ad2c7 bc62775a bd084fd9 3d516e0d 3c65e79b bdb17df5 bc896460 3ca5ad07 3b098c34 3ce29ebc bb2d22c1 bc1b8b5e bc985e1e 3d2e2b9a bc8adc1a 3a56db08 bcb581c9 bc1ace5b 3d009156 3cf413a8 bd10f966 bd83a310 bbb14fc8 bc769ae2 3c016a0e 3d02c8b1 bdb56315 39125db4 3caa264a bd28dee7 3cc124e8 3c7a42d9 3b094286 3c9fe146 bd6017b3 3adb56fa 3bff4187 3c91ece9 3cc48dc1 bd13a5d5 3da91a61 3d8745b1 3b894205 bbdfe690 bc93152a bc0dbc56 bd50a5db bc7bd998 bb8d7c9c 3dd12235 bcd064ca bc48e79c bcca0120 bbd5d7b1 bc5aa25c 3d6adccf 3c053708 3d1b0e05 3d0d6b29 b9c0d3b3 bca5085b bc8138ba bde73513 3cd4fd91 3bfc8176 3b4875c9 3b938ef3 bcae77ca bd22306a 3e2bca7f 3dbc8d56 bcf01360 3ce05990 bd0c82bf 3b2ce0e7 bd0d678c 3d01b632 3d287c20 bc5b13ce bc66fbe2 baea5c02 bd4ddd63 bcd3d290 bb476a08 bc680e79 bb978429 bbb1dc24 bd4ec753 bb84f398 3c988520 3c0ee633 3c5af552 3cfb6420 bc751600 3d81852f bcbeee62 bbcb1010 bd02f39a 3c01252a 3d970ed5 bce08cd3 be0f0752 bd7b292c 3bf840a3 3c93d3f0 3ca3a66a bc6929f7 3bccf1d7 bd85b287 3c945171 bc8d29d5 3bae9239 3d33f3d6 3d07f9b3 3d36d095 3c200955 3bcefc55 3b9da5d1 3d316763 3bb0496c 3cad4d71 3c5b8940 bc748633 bc8e6578 bcc06184 39099f86 3d8ed178 bbe38ec9 3b915aee babf8461 bb58fe41 3e48b5b4 bc8ad2df bd8adbe4 bd99f25c bc65838a bb7b081a bce7ee7e bc037796 bc10178f 3c9d4614 bd0af260 bcea3607 bd249227 bc2923ca bcc91b43 3c756531 3cc1a9e1 3b383976 bcd2d19f 3c20edf7 3bcaf8da bbb4624f 3cf5cee3 39f062ba 3c249727 3bcc8ca2 3c47e53e bd8d32d7 3c9a8428 3d1d8a81 bc46104b 3cc64b01 bd32961b bd20850f 3e198480 3d3d4439 bc5a919a 3ca25850 bb379703 bc07d71e bb8751ca bb883b79 bbd7fe24 bcbe5bcc bc95fa0d 3c05dbe3 bd6c9083 3ba7f3c6 bcf8296f 3d37895d bc295d50 bcabb159 3d25767c bcb17198 bc8f36ca 3cd21f86 bd7f4d50 3d3ed5db bcac0010 3a880ee2 bdf0bd6b bd417d10 bc2b2466 3d04cd2e 3cf06834 3c8a0232 3cbb70af 3c698132 3d46825f bd5bd683 3ca65370 3d9455f6 bd48cbfa bc0d1f52 bd0e7436 bced09e7 bd366d76 3dc8e8a8 3d20b9be 3bbdca9e 3c9475c4 bc78769b bc8da3d0 3cada8f0 bb50c550 bb40dd95 bc2dec0d 3b46f41c 3bd8ea50 bbf01917 3c20c739 3d08636e bcea51a3 bbef32c2 bcbd51c7 3bcae7ca 3da95ad3 bc7456ac bdd62764 bd611b1c ba55effc bb1d8c72 395a370b 3ca25d9e bc4172ad 3c1d9fa3 3c223f5b bd0d327d bba9448c 3c75c777 3c60604d 3c1b2fb0 ba7bbf81 bcd6c13a 3c0c6c61 3c607a5f bd3b0595 3c6638a2 ba94ba2f bcc248db 397df71b 3cf31061 bb78568c 3cabd366 bbaa86e5 bc974ce8 bbf922c2 bc25135e 3d73e263 bc4cd8e7 bd8a549a bd321809 bd1948c3 bb24e275 bd07ed8a bb91ed5d baf02015 bc87fd41 b967506a bcd0c004 bd1632a0 bc905d55 bbad966d baa7dfd5 bdc65ed2 3a790160 3bf4d5fa 3b327425 3d242c62 3c8d5558 bd1f942e 3c835413 bd3c5fa3 bbd787a5 3d4a7cfc 3cc0f8e0 bd3fee12 b979f3f1 3dbf3be9 3d2e06fc 3c2b324a 3b0501ed 3c327cb0 3cd12c5c 3cec26da bcda2c73 3b131e6a 3b7b7515 3d01862f 3ca8f2a0 3c213800 3c369ae1 3e25d810 bd5f7df3 3cff6461 3d058cef 3c299a4b 3c84e478 3c56eea5 3c1dadff bd429865 bb407df1 bcf9f6f3 bc149dbb 3bc79339 bbcc1c5b 3c16541f 3d4df67f bb9e8b3d 3bae42ef 3b8e0651 bc086e21 3dbe1542 3c2cd90a be143b48 bd871d7e bb98ac70 3c70881f bc98cc4d 3c1881ef bbbf137b 3c46d8f7 bc77727b 3ce1bfa7 3c9ff8cb bc8a13fd 3c4e03fa bbdc0c09 ba6ad631 3b956e02 3ced9072 be1b02b4 bd66c61e bcaeb3f4 bbbc52cf 3be38e1a bd7edf97 3d40f5ba bcebcd84 3cc0a5cd bc946d2d 3d2c7c99 3c9e9fdc 3c92c18d 3d2e34d0 3b0f6fd9 bbf97734 bc09babc 3cdc22c0 bc4eb57d bcf25d2d 3c9872d4 bd0fe94a bc47189b bbdb331e 3c25f976 3d2ac169 bd4e88a4 bc8631d5 bc3f10e7 3cab55bc bc856d1d bd1e44d1 3ce6ca23 bd0cb2ff 3cb1ee1e 3d1470c9 3b7fa556 3d82ea67 bc5f184c bcc6de4a bd05ccf8 3d323f6f 3d174856 bc86abc6 3d23c0bd bc52afef bd598299 3bc15695 bd102f5c bce6d2ed 3d8f5380 3d9f7c59 bd756426 3cab4c1f bd0be83d 3b0bb796 bc4d60f5 bd37184a bc8a99aa bb9f21ed 3d2b5b4f 80001763 00001863 000011b7 0000098c 000010b6 000014c4 800011b7 00001a55 00002e19 80001f34 80000d1c 000006c5 0000028c 000006f5 80001860 00000f33 800011d4 0000050d 800000b6 00000aa8 800007bc 80000d46 00000381 80001d70 80000482 80000f3b 00001b0b 00002ea5 000015d0 000013ce 800010eb 80001108 3c4c20b6 bd102593 bd2a5624 3c6c5128 bb50b20e 3d0a9b1a 3df5ecdb bd5c60d8 bd08ab43 bcfcb819 3b293f4a 3c9e2009 3d176f47 3c4b62fd bb649113 bd5f453b 3ce25e74 bc4ab66b 3c72beab 3a9bc276 bd03e42f 3c9ad834 bd2bfedf bd83f63b bd85f757 bc9787d5 3cc8a59b bd2e9c4e 3cd74540 3c854902 3d2ece76 bccc22f2 3db28de7 3d460c43 bd11b7cc 3c982f7e bd02d1af 3b7f3235 bb8744e4 bc94ab3b 3ce9b34e 3ca169e9 3cd6ac0b 3cb126d2 bd4ac215 3cda7ff9 bcc855b3 bccb45ce bd7bc449 3c0351f8 bce6ea3f 3c705320 bcfa768c bac6a17a 3ca4f19f bce0ba21 bc05af21 bce434df 3d16ac92 3bce2fb2 3ca20dda 3db14d74 3d831370 3d4b6bbb bca72726 3cd926b2 bd867b6b bc337c05 3cf92dee 3c791ec6 bd47465a bd44c073 bd14fa2b bc6775a3 bd467044 bd5f030b bd23fc21 bd035d35 bcd1f86b bdb49f6a bc0c95c0 bcdfcba4 390fab59 bd4cd8dd 3d5bff61 3d056757 bdaf5054 bb98849a 3be9fe82 3d10655f bd01b642 3ce050c1 bab7018e 3d38a54c bc948418 3da50eeb bd1443c8 bcca44e3 bcc8f212 bd46c475 bcc467ed 3c2ff6a3 3bb165f6 bc006af8 3d3b8fd0 3823e50e 3cd6416e bbc4b7e8 bcea9419 bd4026c7 bda1df5c bd05abe8 bcc2d972 3c91fbe6 bb30e5df 3c0f1eef bc263be1 bc29b6ec 3baa42ec 3cc179f2 bd290d45 bd046351 3d2df263 3d30b37a bd098fc4 3d8fb4f2 3ca51e63 3da1a1b1 3d3fc7bf bde410aa bcc51ca3 bc812e27 3d2277f3 bdaa3a43 3db7dcfc 3cc6d094 bdc0fd47 bd463b74 bd807187 3cb696a5 3cb9995d bcf8cb60 bd405906 3e0109a1 3c2e3504 bd507572 bc34504d 3c32b3a9 3ddfc968 bc69cd49 bd0bce16 3ca15f24 bd5b4688 3adae421 398cacd3 bd916894 bd078c7b bd8a30ec bb92f997 3da5320d 3cce0e16 bbf1702d bcfcf335 3c24eaea bda4a9e4 3b493b7e 3a8e5997 bc9944de bc7d73e6 bcb0d83d bd7c11ff 3c1d67bd 3d01046f 3cabe3ef 3ced8f2f bcdc4b82 3dc5a89a bbd95163 3ce9d9c0 3b91d43d bc05565e bc1e8337 bcc43d94 bbfd370f 3d0fbd6c 3c8a035c 3da74a71 bc1f009d bd2f7d8a bca6687d bdc9899d bbfde44e 3c7be281 bc05cd16 bc9c8e36 bd3bba59 bc12778c 3d6a0f29 3d39222b 3d55a06a 3cfc4c14 3d02c5fd 3d85baa8 3d65adeb 3d0494d7 bd150a8d bb793344 3d70e16e 3c4b3839 bc1c32c6 3c1e36f9 3d882952 bbe9e131 bc2d04e4 3ccd6b97 3b57f6b0 3d724878 3d90eecd bc8bfc7a 3d541ff3 bc89939e 3c952d61 3c6d1923 bd0dc02b bbb02beb 3bea4f56 bc75b40b 39f4391e bca886dc 3d799f1b 3dac086b 3d2be538 bd11493e bd25d0e1 bad9fe88 3da975ba bc40a427 3c4d6f57 bce5568f 3d885cd9 3c207e9c 3c97ac61 3ca2783b 3daa2e89 3d3d42eb bd0a6562 3cdbb8ac 3d9c9da7 bcaca510 bca95c61 3adcf144 bdb744ac bd6b00ff 3c6b2e1e 3d7978f0 3c767f23 3c24de68 3d21fb9f 3cc1fb07 3cf6dc05 3c474892 3c15a86f 3c869740 bcb92b8d bdad45f7 bcc4ec0d bd0802ec bc5d6208 bc8475d1 3c3cccc0 bc484830 3c92d41f 3c56458c 3d21bfff 3c61b183 bc834be5 3d20fc87 bc178dda bd21d36f bcc882ae 3d112a27 bcf0d1b7 bc337881 ba73c7bd bc55f101 bdde3371 3d412bd5 bd901b2a bd8fd8cc 3d16646a 3b24f69d ba48f2c9 bc751dd8 bd5d3b3b bc802335 bcb45702 bbb37a12 bda9654f bd64c6de 3c9c66ef 3bf3fc06 bc8be274 bd1e373e 3cd9a1de bb8eb6e5 bc95462e 3c8120d6 3d0c57af 3d4e7280 3d0ea458 3b896fa1 383baff1 bb33e705 bcc0253e 3c2d5c6c 3ca41778 3c2cbd20 bc0e0efa bd11dba1 3dcbb856 3cf63382 bc9c26cd be1b224c bc8cef14 bd20eb15 bd069390 bc347bcd ba45aa9c bbe35613 bd1f25b9 bcdc20ed 3ca9ef38 bd8fff21 bcdcaec8 bb9c389a 3d0925f8 3d512d31 bd64fc9d 3d2a07e5 3d15a9b6 3cc19b0c bcaddb43 3d13a987 bdded50f 3c6452c5 bbf88fd7 3d634183 3b35d25b 3d147304 3cecd4c7 bcd2e8f6 3c2da49a 3dda1a25 3d95f129 3cc1079f bbac12cd ba1524fe bc8bcd2e bd1f4563 3cf44053 3ca9ae06 bd2d40b1 3b1a0da0 bc104efd bd35dd7d bc99fa17 bbaebb58 bd0cc0c5 bc784a2e 3be4667f ba8f1e3f 3b341aeb 3d77b0dc bb80aaf9 bc2f8365 bd9a75b1 bd1b5ef1 3cd5cc99 bb69bb2f 3d1d8584 ba8e06ed bd6e0fab 3ce91b7f bdb8c5a5 bcefcc5d bc27f4cf 3c8cbc2d bdf5b3e6 3d0fad13 3c80211e bcec21af bb55f8b6 bd0cfa4a bc7c389b b9949813 3d2ffebe bb98dec0 3d6dbb25 3b258411 bc1073fe 3c114a21 3cb791f0 bd1f9e79 bd18b63d 37eeb0f1 3c773184 3c3dd99f 3c669372 bcba4f50 3cc0dd4a 3ca95537 3b48d9b6 3d94763e bcd12101 387c881d bc4c4777 3d392362 bc7448f0 bc9abf47 bc96c823 3caddf11 bcdfaadf 3d1c9e27 baf1f36d 3d5dcd98 3a974729 3b46440c 3ae0f57b 3bfdd97f bc9f7ac8 bd1b2962 bc5d74d7 ba66a600 bd0e8c71 bc32ca8c b8e16a98 bc063bee bbb2d3f8 bbcb3e16 3dace9cd 3db6643c bbb53004 bc0961bf bbc938dc bd17f83a 3c70fd8c bc630a42 3d10b6d0 bc3a9b00 3d1bd77d b9c1819a bd14e607 bd136a35 baf0ed4d bcc4e5a6 bc2d9ddd 3ad78b22 3cfb4964 3c101f3f 3d125aae 3c95b4f1 bc7ac908 3d48cbdb 3c88b29d 3b89269a bc94f5da bb014de5 3cb1b51c bcc5f337 bcf726cb ba3f1825 3c0c8a91 3d202736 3cf4dd74 3cfdbe3c 3cd5d0c9 3d5046e3 bcdaee4a bd17e369 bd140fec 3d1b56f5 bde0b301 3d6fe41d 3b610610 3c2f3721 3d1a81bf 3d0a424d 3cef54e3 3da275e1 3d9c877d bd043a0e 3cfb18a4 bc859f87 bc299ee5 3d04ccbe 3bde70dd bcc8e73d bcb39258 bbc7d033 3cc8e89e bd0ef525 3c120ed6 3d51fa00 bd901a91 3d297614 bc8a7b3a bc4d6167 bc977ffe bdaafe53 bc619a49 3cf40639 3d2882c6 3c760415 3c38d12f bd8aa672 bc6e6c10 3cd67e3b 3c7a6b7b 3d3049d0 bc84d15e 3cddfc6b bad8bc17 bb866cc5 3c7a3fbe 3c9cf3f4 bca80380 3c3c7625 bbb30aae bd1e8936 3d65184a bc7be41d 3cc06e48 3c6e16ef bd2ee1e0 3d144123 bc68e956 bcbb8424 bcd72a2a bcf40dce bcf127c7 3d47fff1 3c00542d 3ceffa2c 3d6ac9f6 bbcd939c bc619331 3d000123 3c1018fd bd3389e2 3c50c152 3c9b2029 bd45d0c9 bcc6a5db bbc82c9e bc3c7989 bd1ce608 3bc84f6c 3ce43e3a 3c69e842 bc9ce40d 3da3d785 3cd044cb 3d70e530 3c73a468 bd3c42a2 bcb73ba0 3baa5306 bc47c050 3ccb7dfa 3ce0921e 3d204c3f bcc1eb5f bda49617 bd4d159b bd9c656b bc87b232 3d28825f 3bf9792f bca9e71e bd2a0ec4 3c0b34ec ba3f1164 bbf186e7 bc575d9a bcb3810c ba11ac03 bc6f43e1 bc8072de bcea8232 bd33914b bd631641 bde2eb1a bc94fe39 3c762f60 bc872e8e bbc197d2 bdb21f8e 3d33f95d 3cda5e58 3cec510b bc21b9ad 3ce18c75 bbf683a5 3d8f2cbd baf2751d 3cbadba1 3b4151ef 3d703760 bb9abbc3 3c69320b 3cbf71e8 bd1a5723 3c5b432a bc49a52f 3cbc8072 bd19ff50 bd161b15 bb3adcca 3b82a469 bd1d7027 3c376aad bd42c5fa 3d750528 bce94931 3dd4b156 3d1f320c 3d24fff4 bd211bc8 3c76e55f bcd144f4 bcbbaf03 3bf0eeea 3a7785d2 bc947252 39fd1627 bb9b7f5d bb8c47f2 bcce1373 bd89ff5a 3befaa24 bca27f3e bd24962b 3bb83c0a 3be91822 3ba9f672 3c4f1761 3cac626b 3bc778db bca72e8a bcbecdbb 3b91cf96 3c377294 be269afc bba1d2f4 bb22e97a 3dc2a022 ba5d687a 3b7b1590 3a99fba5 3a73d91e bc8dac70 bc981b31 3b97ebed bd57c815 bc3a18c8 3c3fb7f8 bc6403b7 bd11aa47 3c05a980 3cd09fd2 bc5b666f bcd919ae bd249bad 3cf37f8f 3bcac748 bd04d740 3d0f6764 3c6e5ef7 bc6f6f6e bb0849e0 bc25ab66 37fc087e bb59ecbe 3c9a4a60 bd8b0f4f 3e07bce6 bba9216d bd4430b9 bb99e979 3cc19439 ba7448fb bbe94b11 3bcb540e bc8142b5 3c54fa9e bcac6c8b bd501e01 bd098b2d bc4b127a 3a49543d bd0f8ec7 3b3efef0 3d4600c1 bb92cfae 3db46885 3d8a4346 bdd13b3a bc9bac49 3d131ab2 3d17b0ca bcb5868e bdbe0d78 bc831a6e bd3fe459 3cbf6c3e bd6d61bd bd1495d4 bc3c5903 bb90bb4a 3d937017 3d416f59 bc226eb2 3cccf519 bd36a9b5 3d3480e0 39c90081 3c89431c 3d1c066e bcaa5c2b 3c4c4509 bd10d943 be024855 3cab8eb0 3d891797 3d1f3f1d bda5dd23 3d5c3e15 bd3391ab 3be805b9 3b9fb8cd ba9a2f5d 3d02c694 bb4ad875 bc1a72b8 3d2a7c64 3d212248 3e03fe19 3b30d51b 3c3498c1 3cbb5fa8 3c4a45fe 3be7b13b bcd651e7 3da06568 bd0cdd87 bc029185 bd2de134 3dc47d1d 39cd0f1f bca74a5b bc872221 3d41f769 3d204ce1 3c40250e bc6b67b9 bd5f6422 bccc61ef 3d2843b2 3cc8e851 bdb30fff bc4e6259 3c5224a9 bcf406ba bd923e7d 3cb54e56 3d5432df 3c9f8daf bd4983d8 3d08cb6f bb9a73b8 bd0ce33d 3cdffc3e bd039313 bce5bb5e 3d9a133d bcf728be 3d73b1e0 bb363136 3d013f6b bdb14fe0 bd261e2d 3d9db4cc 3cf0d30d bba15311 3ce42f8a 3dac9947 3d4015fc 3b0025aa 3dab058d bbce0180 bd57cd31 bbb55042 bc861fdb bbf9efb9 3c09cc90 bd1902dc 3d12ca71 3d9850d8 bde84117 3c2d0cab 3c4f2e00 bd511142 3c6f7ab9 bc8d3280 3d2192e1 3c7cf8d1 3d2925b7 3c15a9d8 3d373aa0 bd54a4a2 3d30333d bbfdf225 3d0b8f36 3d5edf30 bcb21357 3c6066bf bc9adc79 3d290d45 3c4619dc bd961e40 3dd2ac8d 3c4478d3 3d726e10 bd82e2fc 3a879a67 bcf0e568 3c150066 bcfaacdc bc84b298 bc51bfc0 bd9c6e64 bcef12fb 3d99aaf0 3d4f2d5e 3d2cbf56 bca58777 bbfb7c69 bc885d70 3c28b056 bd479023 3b8425ec 3d1ca7b3 3c0d6f1f bd18715a bd8b21d6 3d23b41b bd10c1ec 3c0fb29f 3aa60766 3d0fd97e bb399910 bdcd58d9 bc9cf9fa 3db5e09a 3c611407 3dc1247c 3b09d492 3b32ecc8 3cad7a53 bd0c8236 3d0da194 3dd2739b 3d0e9772 bb98c0b2 bcee90ed bc22c42d 3dd2c77e bce77736 3d0470bf 3d03fbb5 bc3139db bdb03da9 bb31292c bc0e470e 3d362101 3cf56f48 3b974ec6 bdf87594 bc491a83 3b658c9c bcaa62a2 bc251620 3dc07577 3cd47c28 ba779bc4 3abfe5dc bc714f57 3cfab49f 3b68711e 3c3b177e 3d815b46 3b19e19e 3ce5dce2 bc2828d6 bca95b3e 3c019192 3d1abded bc378b5e bd6bee48 bc6baf02 bcf6efe2 3d2268de bd376314 3bd028d7 bc84805e 3c104297 3d2e4e75 3ba59f9c 3c12924b 3c5f9e84 bd320075 bd2dd413 bb500ba3 bc92cd71 3d7373dd 3d03e2a6 3da803ac 3d037d7e 3c8cc7f0 3be24252 bd2ebec9 3c72d3a4 bd21571a 3cc75f0c bcf1e53c 3c7c10cb bd154e2c bbc46117 bc90145b bc1008ea bd03684a 3d008d10 bb289c2f 3c324f0f bcba2755 3c385a73 bc66b453 bb5f3c7e 3d385968 3b79768d 3c28e6ec bd4f6ae1 bcf620b3 3b8e2fbd bccf4d5d 3caccc9c 3d4eff66 3bdd89c1 3cbe52e2 3983ee02 bc48ff64 3bebdc3f 3c76d7cb 3c97e918 bb90ad49 3e1b91be bd26df42 3d4250f1 bc5aca37 bcbc2875 3da8a5c0 3d35b6fa bd0d8352 3b04c7fa 3d01f92a bc9ae420 3c949836 3dbf054a 389605cc 3d766df9 3d53cff9 3ca7ea90 bd8c3a52 bd584aab 3d395358 3bb1d7d4 3c40cd6c bd057296 bd25269b 3be2c35e 3d3316fa 3d389869 bd1cbdf8 3c084232 3c3356ad bc87004f 3d5ad14a bd84acaf 3c826535 3d8250a9 bcd8629a 3c5371a0 3c98feca bd8bbdc6 bcd2f3f7 bca6a8db 3c4f7dca 3caf67ef 3d10d476 3b77b1fd bb8e4f44 bd470926 3d908fcb 3da13108 3c026525 3cde13ad bd6144a7 3d23434c bcbdd692 3c63ae7c 3d5c7fa1 3da26acc bd6fcc2a 3d966db3 bda196fe bc69db2c bd0e68f5 3dbaafa1 3c023991 3c14a43c 3c5b8f30 bcf3a568 bbd09fb9 bc80ef1d bd85428d bd0f1cb4 3c15840f 3d8cf35f 3d4b3ec0 3c8a2383 3bc66ec2 3d9bfb1d bb7c340d bd433696 bd899472 3cc01d72 3c27daeb bd2866e8 3b72a211 bc49d59e bcc02003 3cce89f9 3cfc4fe0 bccb9d96 3cc4c3a6 bd65ec88 3bad9514 3d0cf21f bc6f5ac8 bc702524 bc935adb bac51892 3c966257 399b86f5 bcb68f7a 3c0ebf07 3cb625fe 3c06b30d bd892a51 3bfdb39b bcde6119 3d0c3ca2 bd78961b bc0294e0 3cd4d4ff bc378f43 3d22186a 3cf142d8 bac188ec bce2ae6b bd3ba2da bc7f7f23 bd28ac5c bc3d4f37 3d53ea4c 3d57026d 3da2b17e 3cf53e82 3df7f4c5 bd05041d bb4e3e1a 3bb6e60d bc963166 bd72e92d 3d1bf6e3 3d411462 bcc065d9 bcfe1cdf 3883950a 3c1237f9 bd2c970a 3bc8efb7 bdc1ce8d 3cabb060 3d1383f2 bce4738b 3d096460 3c3e6fd4 3d896ac3 bcf89fa6 bcd0329e 3bb436fc bd1d17f8 3ac011a6 3bb5bfb1 bc934225 bd5a6651 b9c81b9f 3d54bbf0 3c944fe0 bca8f901 bc280075 3ca737af 3d9c1244 bb82980c 3bd02ee2 3abacc15 bcb3f74d bd5a21b5 bc893e7e 3c33db79 bd1724ef 3d0ae026 bdaf8662 bc961729 3c8cfc1f bc8b6bb8 3caa4b87 3b36d69f 3caf577b bc39d1a3 3c78eaa4 3bd34113 3cc1fcc7 3c4c8293 bb9541c2 baac1a63 3bbf138b 3d9d1206 bcbee23b bc4d5296 bcaf0c3e bc37b285 bbfa4161 3bceeba6 3c48dd58 3d043ac7 3c635e93 3d34696d 3cde3a70 bad79a7c 3d4015f3 bcb2e948 3c259e96 bd585154 3be06654 bd01c66d 3d5a9382 bd1387ce bce41b04 3c136294 bb0322f6 3c9b541d bcd2bda6 3ccf87fa 3cb5f435 bcf3634f 3b9a92a0 bcb26533 bc4059a6 3cb16562 3d4e56d1 3d999e33 3d56ea89 3d854c1e bcefe6a0 bd557984 bdb76f2a bd5f0db3 3d06b585 3cc9448b 3ba1625c 3d1310df bcb94f4e 3d165417 3d060a84 bb1f5c9b 3cc11e67 bce74d06 3c9e726a 3bb9ead3 bd19423e 3c922384 bcf2d6fa 3c9f3404 3d54af66 3c883c5d bd58d042 3cc5b665 bc5f54c2 bd1afb5a bc8af1f6 bb803d03 3d1aba47 3c36c2cd baa2fdf3 3d102705 bd1d1581 3cf9a211 3d3a74ea bc999939 bc5ed691 be006d56 bd4a66e0 3d4acb48 3c42e16b 3d0dbbf7 3cd1bc30 3dd82c88 3d9ea4a8 3ac660bf 3d728601 bcacd3d3 bd1f419b bcfb90bb 3bfb8aac bdb2d78e 3d222557 bcf2aa44 bd53a9a1 3be0ec81 bc39cbec 3d8ab805 bcb36751 3da56818 3dcdfb03 bd9f1bfc bd02dad7 bbdc0568 3c879bdf 3a6d6493 3db567b0 bd40e111 3a74105c 3cc03369 bae33385 bb26bdda 3b777de9 bc6bf541 bc8963b4 3d10fa84 bd81b321 3b0e765f 3cafa18d bd4f4f16 3b35742a 3dcbdfff 3b8db612 bb5af4d7 bd0e88de bc1e2e80 38ecfe1b 3c739ac9 3be27b82 bbc918d3 3b831b96 bc24f30b 3b4d9b2f bc899610 3ce83300 3caf668e bc25ab3a 3d9e4869 3bc307c8 3c2c5d93 3d3b900a 3d736c85 bdb24ba3 bcec0e89 bc3c7238 bb802585 bae5a920 3c03d2bb 3cbc41bb bc7a63e5 bc658c1b bd41fb6f bcf46091 bc513f71 bc236a81 bcc94376 3c206abe bd12866f bc691ebd bcbce03c 3c7d6a09 bca4d99a bcf2fdc1 3cf9f690 bcab7be6 3d1c4189 3cd15470 bd1d2ea6 bb944f91 bd0fb220 bc7e40bf 3d0dcb87 bcf0d124 3d7a15cc bd025d58 bd1842c1 bc34834f 3d1e77a0 bdc61ba5 bd579523 bcccbe1a 3ca814f1 3c0724fb 3c854613 bcfd1e05 bbb32412 bdca4061 bd842c0e bd816b4e 3d5b94d8 bd01a3dd bd56edcc bbeb6a6b bd2ad1b3 bd7433b1 bc550241 3cc8587a bd0d7a76 3c9aa73b
conv5.4.weight 64 3d1cb059 3d1e47e7 3d62f2e6 3d3c9293 3d6ceefc 3d0398d4 3d274625 3d642915 3d6e877b 3d0af615 3cd16bb2 3d3bb299 3d24d892 3d4ff1fe 3d7695d1 3d360b52 3d36e915 3d35148f 3cf4bdd7 3d0669a5 3d10e567 80000161 3d43bd49 3d4578a2 3d4fea84 3d115ee1 3d1a6675 3d617b67 3d08f906 3d71347a 3d712dcd 3cc66971 3d7116b2 3d54109a 3d561fad 3dae5a30 3cd26b4b 3d183f24 3d17c08a 3d2d330c 3ca4b0d8 3d3e6265 3d7c8b21 3d3c95b2 3d49ac3e 3d132868 3d389177 3d62e02a 3d66dbff 3d1e131d 3d484a4f 3d0edeaa 3d406456 3d84b26e 3d4b8816 3d225a9a 3d2b99f4 3d50a5a8 3cd4cb14 3cfcc749 3ce384c7 3cfa03a6 3cfd16ed 3d845ee1
conv5.4.bias 64 3db35bea 3d4c0b58 3d0c9e47 3d103b1f 3cac5287 3d3984b3 3d743d06 3c849701 bccbafd2 3d7dd7ed 3da9fbdb 3d98d15c 3d9eac04 3d340184 3c8cb92c 3d3e0bd6 3d92bfd7 3d88fdbe 3db3ecfd 3d8a5d55 3d6c4b1e 00001408 3d06bce5 3d3d971b 3c853923 3d367043 3d9202d1 3d269dcf 3d747d92 bcad42bc bb0f2b42 3d957211 3d51fad4 3c974787 3c9d53b8 bd15c097 3da1ecd6 3d55f98b 3d66c2b9 3d8000b8 3dda77e1 3d2471d7 3b5e10d0 3ccb9b0f 3d580799 3d69ae58 3d3d4ff1 3cc52341 3c4efbee 3d8d2e6f 3d139748 3dc5fc46 3d576af6 3d0cb89f 3c9b4d25 3d4cb150 3d4bc844 3ccd2666 3d8eaa58 3d810360 3db060bb 3d8ba590 3d8464e2 3aa8303e
conv5.4.running_mean 64 3c942ff2 3b64f5e5 3d00dab7 3c936568 3c8d4e36 bc9fbf5d 3c5942be bc92fd62 bc05c256 3bcb6dc2 3c81c359 bc5c5e8e bb7d3d94 3b201670 3c867d00 bc3887f7 bcbfda0f 3cef2659 bc4191eb bc1951e7 bc90c22d 0000006b bbdd3cf0 3b56757d bcf1f1ea bbeb5063 bcac2f5d bc39a708 3d031da4 3d00f3f3 bc0727ad bc572043 bd1d020b bc9c8364 383f1e4e 3be7c039 3b5abf24 3b6495a5 3be9de6d bc3d7dcf bc80201f 3bbbf6e0 bd0b0fba bb83ab7e bb48a88e 3b3b96cb 3d12c364 3d11eb25 bc66e792 3c932b30 3c5e2992 bc6cc8de 3d04b01c 3c98c063 3ab1b4dd 3a4cfac2 bafffd95 3b2d7994 3ca6483d bc6eff3f 3ba5a1c8 3c327c9c bc241e3b bd3b7bae
conv5.4.running_var 64 39914746 3911ef5d 390d0401 3891de9f 391c0d4a 3950eca6 39889934 38c0cdac 38964e7f 38ab509c 39a5e4a3 397770bb 399d48b9 39501e9d 3917e6ff 38f8daeb 38d8f4c8 395869c6 396e6164 38db355c 38f4d84b 00000004 38c5e93b 391462d6 39032508 3891e3bb 38b879e1 390b20ae 3963442e 38c2fe72 389761f2 38b7b8b6 39b99ffd 388fc281 3873dca9 389b6be0 3895dc85 38ec0e54 38c1ce47 39199511 38b9443b 38e8c8c3 390a08ed 3897d6cc 395440a0 38ecab89 38dfe141 390ea54f 38a86fdd 39785b67 393a0cf4 38a74739 393ee72e 397e529f 38930f02 3945cfe8 38ca64bf 385fbf56 38c6d1c0 390f102d 393b4560 38c1bdce 38b1b084 38ab48b3
conv5.4.num_batches_tracked 1 4a0cd818
conv6.0.weight 576 bceefd25 bab95e6a 3c431275 3e567bda bc9bbf68 bd203a47 3d25bced bdbcc15a bd80ab48 bd627876 bbaf720b 3da26686 bd9df08f 3c7616ed 3d8efc6c bd8b50b4 3c32259b 3d749099 3a9e1c82 3c7fc4df 3b75bf7b bc301a77 3e020c77 bc56b5c8 bcb4fea7 3d21a3f1 bc966302 bd1bc8c9 bd29be72 bd087e78 bc7f612b 3d2cf5cd bc809a36 bd3091e5 3df523df bd3970a7 3d2eb954 3d59cbd4 3d3c4e59 bc235d01 3d823612 bb90a5e9 bd157221 bceaa551 bd225055 3c49df55 3e1ec460 3c3a48df bbe2fc32 bdd9153e bc1f1c74 bc275ea5 bd24db35 bbf1b780 bc318982 3d32a47e 3b9644ba 3bb446c6 3dbacca7 3d5fa9b6 3bada0b4 3d116e88 bcbe6c29 bc20f45d bb8b8184 bbde5035 3c6fd740 3d4cceb3 3c14611b 3b71c955 3da482b5 3bf806d4 3d5d7cd6 bc5e2880 bd0cfbfe 3d884b55 3d16d5a5 bd9e2945 3bd417b6 3c6c7992 3ba2feaf bd07dd51 bb573116 bce77393 bd34cc8e 3e5b0c44 bd79bc53 bc829b8c bc57f551 bc0754c5 bab4aa48 bd4c74f9 3c6d7d96 bd561785 bde67fb6 bcdb16e5 3ccd9832 bc61e177 bbe6f342 3c3261ed 3d91e9d6 3d82097c bc9dd473 3d08ab8f 3dc3f4bc bceebf22 bdebc953 bd3fa2b9 3d00488e bbb643da bd290383 bdca8974 3c32e53e 3e522f63 bd413858 bdc147ce 3d7a3f26 3d855f02 3d8f6ebf bbf1ad8a 3dc204a0 bcca343f bd5f86ff bcdf8d99 bd9ca507 bd57e9f2 3beebaa3 bd72c68c 3c8b8802 3d17c5db 3b909fb4 3d1d9c09 3cd8be8e 3d9639e1 3cc3be96 3c80b035 bd192799 bcdff4d7 3dd83c2f bb9aae38 bd6b070d 3d7f8774 3b08e204 bb545090 bd0b94db 3ca61d5d 3cd3c966 bd10c728 3dd2104c bc8d8058 3d1a6289 3c820954 bd4b579e bce92c05 3d039c4b bcbe590a bd33a42d 3e4a27ef bd6746a9 bc84ea36 3cfed2f1 bc5c4203 bd686f74 bd715ede bcbe85c9 bccd65b2 bdcfce4a 3c56d362 3d63258f 3dd93ace 3d0b2f3d 3ce64b32 bcdd0e11 bd0f3324 3da227c8 bc85ae13 bda6470b 3d89cc86 3da110fa bcd4300c 3c68f838 bbc9ddef 3c6618e8 3c98bf2d be38cbd5 3d448765 3d2caf43 3d95ce55 3d053403 80001895 80000d23 80001ceb 80003bb3 80000646 000014c8 80000063 80001089 0000093f bd15ac43 bc9eba94 bd0865c3 bccecca6 3c0f7ea4 bcfa1016 bceb10f6 3b1ed354 bd05c376 3bac4c57 3a814554 3b05a76d bd02c643 3c2c09ff bcf5987e bda03c58 3e64d428 bda4ed02 3ba7ed1e bc1346a4 3b87d3e4 3d04ed46 3d2ec7d0 3cdd4336 3c926146 3daa012a 3c558927 3d14d299 bd2178e4 3d044318 3bdd5ded 3dea1292 3b02fdb4 bc870420 bc34d322 bc6f294f bbc7c7f1 badf87e9 bba0c25e bc4caa25 3e0c8560 bc58b8ac bc8cbda7 3db87741 bc8c948b bd25fd64 bd578d85 bd3d313b 39f108f5 3da8bf11 bb1ea11b 3cc9e20a 3dbafa24 3c97a805 ba75515b bd882741 3a8133f0 bd284cee 3e62720c bd4b017a bb6a4dd7 bd3f1f57 bae9ce11 3cb6a1fb 3d497312 3ca4bd76 3d08cdc8 3d6ab76e 3d179223 3c06d12d bd92fc4d 3c7aa07d bc55066b bd1383ae bc137134 3cc26f16 bd406044 3c7a3554 3d75e2e7 3d59af6f 3d578506 bcdfaec7 bd816ed2 bc930bab 3bb46e1b bdc7e405 3c6e90d0 3c9c5100 3d87cb5a 3c270c4f bd2c1b4b 3d777fa1 bd3a884c bd3d5679 3e7ad7fc bda28ee5 bcd15f49 3ca8f79b bd093478 3cde4ef3 3ddf0949 3c8f0048 3cd7c599 bd825ae3 3ced968f 3b0c2bb6 bd7c33a9 3b113da6 3c0cd5ea 3c0f6851 3da61074 bbc8490a bbcb206a 3d942a51 bd06e776 bd583884 3cd7f039 bcacb085 3d5c50cc bd3b40c2 3da356ec 3cc095c1 3d65bc6f bd1f49b0 3d8e3044 bc9980e4 3cca331b 3b9ff1ca bd07bbd9 3dbfae5c bc6a8c1a bd5cc0b1 3d166092 bc5eba33 bd493a09 3cc16617 bcc2c9c5 3ce0c832 3bc6e860 3d9b4963 3b815224 bace3dab 3da63b36 bb58c65a 3ce41746 3db5ae8f 3b526d83 3b1cd15a 3d208e88 3b0ab1a6 bd5424d2 bd80625b bd09997b 3c411581 3b142db6 3c0528e2 3cbc9bba 3dc52e7a 3aa335fc bcbca89c 3d62cacc bc8e354a 3c812589 3d9b3d0e 3b82d9ba bc4cdfc7 3ddb6d01 bca44ea1 bd48aa0b bd3a5236 bd1f86b5 3c120241 3db8c359 3bd68fd8 3cb8aaab 3d36e724 3c1922eb bcea17a1 bdaeafcc bc3f5c42 bbc187f6 bd1916c5 3a3457e3 bbdbaf3e bd7753a7 bc333efe 3b4b8955 bd24add4 3c0b7130 bd5b41e4 bbd1a149 bbd7d7ee bd52cf46 bcc69ca7 3d471675 bcdd6132 3d719e59 3da9b677 bc4169c0 bc13d214 bc1a553b bc5042d7 3e06b3cb bc92c129 bc664990 3deb145d bcae39c6 bc6de35a bd912f85 bc53cad2 bce88304 bcd98b18 bcca8a9c bd1c1355 3cbe2507 bd0a251e bc233a11 3cd78ad2 bc1537f4 3c20cd00 3da0b318 3b3b5249 3bb11063 3d841724 3b35e0bd bb209c0f 3aea39e9 ba6ba982 b98273ad 3dd5f997 393e21c4 3c118f29 3d28d732 3c26922f 3b25943e 3d917a2b b8b11d8b 3b9a3f81 3dc56bc9 3a4cc772 bc91e416 bc161033 bc6b354c bcb725d5 3dcb7998 bcdcf961 bcedccc8 3e38feec bd289ca5 bcde3662 bcbb8c65 bccbe46c 3b924941 bd5ac3c5 3ce571e6 bd383dce bccf6281 3e23d55a bcdd05ef bd830ec7 3d481d66 bca96ab9 3c5d6162 bb3163d0 3d52f4f9 bca6738b bdae5ae9 3d36a80c 3cd12cf2 bdade7b1 bbfa971e bbe657fe bbc23c9f bd46cf2b 3e4eb8af bd7e5aca b9faac58 bcc0461b 3a893004 3c5b3c81 3e0374b2 3b3e7994 3cc551a0 3caa388b 3c9d6359 3c52367f bd712532 3c1294fa 3c102193 bc25ff4b 3c3924f6 3d1f9cd6 3c27f332 3cf0eaf4 3d11158d 3d646306 3ca20cc4 3d297474 bccdca8c bc496e24 3dc7c599 3cb739e9 bd9e843d 3d93ce04 bd805e7b bd3b0e29 bd0d24d1 3c87ff0c bd0d2f5c bd96b1ac 3e73b3fd bdadeb0b bca5d4b3 bd069225 bc909481 3dc98bff 3ca329c0 3b91bb04 3d631375 bd3934fd bcf2db62 3cd269f4 bca450b5 bd18284a bd1a008a bd633de1 bd0b0984 bd0b83f6 bcdc3542 bcc60bb2 3d1d31d5 3da7743c 3d29da9c 3d0a17e8 bbf2a379 bc1759d7 3daf74b0 bd5cd504 bda77026 3dc29505 bd028610 bd343cd0 bcb6819b bd30ac96 bc42e649 bc9ceaa4 bdec4fc5 bc01e9cc bcbe7335 bd837e57 bcbee701 bd5db76c 3ca0c4ac bd22713b bcdd491f bccbb042 bd33a84b 395234e9 bd1e9862 3c1ad8ae bcd5414c bccfd2cb bcab0aba 3c150363 3e1e8135 3b3c5f3e bd097f7b bdb5a609 bc119b23 3abd9cd5 3d20edc1 ba9ba320 3c140fe1 3dce0a48 bb6edf76 3c68a70b bd3ef8aa 3cb1352a
conv6.1.weight 64 3da8595a 3d6a0fcf 3d6fcf23 3d5790e1 3d78690e 3db6c514 3d9a0b35 3d755ddb 3d1f57eb 3d83d2be 3dd085f7 3d9bebc7 3d90ff66 3d43341b 3d36f138 3d7722bd 3dd76b20 3d8cdbce 3dd13faa 3d5bbfa5 3d893300 8000026c 3d6bbe30 3d6e6bd6 3d4f7fff 3d5f5bc8 3d49c45d 3d895590 3d93ea51 3d4599b4 3d3a5701 3d9a6d99 3da354d9 3d345b43 3d46d65f 3e0c024d 3dca6291 3d90086b 3d89bc92 3de27b40 3dd1f3c3 3d4b50b0 3d67f920 3d3532b2 3d9b0e57 3d8be24c 3d4ddff8 3d8cf781 3d5fc5e7 3d9941de 3d80a261 3e0982c2 3d8b038c 3d5f3921 3d619e4d 3d96b51d 3d71ba04 3d5d18e7 3da9bdb1 3d8d0b58 3d8bc01f 3d8f43f1 3d72dbe6 3d530fb9
conv6.1.bias 64 3e3b0102 3e20319a 3d2c467e 3dbf6e2c 3cf14a17 3d050e81 3ca87ad2 bbbe9a52 3dd4d70c 3e377764 3c63c81d 3d47ce8b 3e4c851b 3e344f11 3d3dd8c3 3cbd74d8 bd0ba526 3de55b18 3c42bfa6 3de63d04 3da217ec 80222444 3d3bfcdc 3e132214 3c80951c 3cefd0fe 3dd22d60 3d0068a1 3e3ac887 3cd0b478 3cc891d6 3d3c6408 3e26d4db 3d5d29f3 3cbfc30c 3ce0d766 bbce4649 3d4642a0 bbc28113 bd068473 3cafd0e0 3c875b85 3d2c8f40 3dbcd905 3d5195e1 3d0a8e7e 3c4b6949 bd020225 baea01ec 3ded9c0a 3d1fe627 bd8b10e9 3e0611e6 3d8ef657 3c6e4595 3cf268a9 3e4872da 3a9182c6 3c8a049b 3d9ed4e7 3d9a2f7a 39857e36 3df57dfc 3c25dfb1
conv6.1.running_mean 64 3a7ca2ae 3b053b73 3ba35ede bb0a9cb5 3b387f43 b9ae10a4 3c4c6585 3b89eb39 3a2d53bb 3a93bee3 bc957785 3b94c3e6 3a9088ee ba8988a9 3bafc46b 3b3ff77a 3ba82285 3bb81dee bbad36fd 3b8a5e88 3b1266af 00000004 bbecfec1 3a712041 3bbc088b 3ba36f07 3c3781d6 3b67877c 3abfab8f 3b0dfe30 3b089256 bbd4b1b0 3b68ee99 3b0f2b29 3b4039aa 3b522ff6 b98fd436 3c1c5be9 3a726a85 3c2495d0 3b985948 3b23c8b6 bb7d048f 3a00f708 3c07ce9c bc4825b5 3c069fc4 3bbaf5c6 3b6a8006 3bcf803a 3a9e3132 bbe65984 3b442320 3bf3e4f2 3bbccc59 39db2cee bad246ad 3b063b01 bb67accb ba99b793 bcddba95 bc50e42c bac4a275 3b4a3f0d
conv6.1.running_var 64 38895754 3873b4cc 381345d1 37a92777 37b70f1f 37a7c2fe 3835d1d7 37a5d9b0 37200136 379f7d29 37e190ee 389d238c 389b7cfd 3863744d 37f5a09c 380cc349 378a7783 37dbd186 383d937d 383fec61 37bf607e 00000004 37f0bd1d 37c8069e 38098dbc 377979b7 37f45c1e 38362541 37c0bbc2 37b66b81 378be4f3 378dbbdf 388d4743 37d5afe0 37c59f76 383a1ff0 37be7863 37e00ac1 37d55d12 37f1802f 37dfd3ed 37bcb9b5 379efcb0 3815ac4a 386fd8ee 37dc16d1 380b2313 37efbebb 37c14e52 38264766 381610b4 37e7dfd4 37ff6610 389e2ea1 37b7457f 3802c813 37fc5419 37ec4cd4 37ad2698 381a4a60 3820c4c3 37abc41a 373ad8e7 37901329
conv6.1.num_batches_tracked 1 4a0cd818
conv6.3.weight 4096 3d2806fd 3cabd82f 3b7f9f9b bb69bdcc bc9d4e06 3cd3393b bd4b309f 3cdebf19 bcc07437 3d877b70 bd05950d bd951106 3d2471f6 bbf08a72 399e091a bc01ba90 bcb3ca7d 3d1aaa5f bd9408d6 3c81a982 3d2dd20b 041c6070 b86dd0fd bc7afc73 3c99f246 bcc62745 baa03942 3c942483 3d903c4f bd371acc 3d423318 3bcbf678 3b2b5385 3c078330 bcbd0f9c bc3b7d13 bd17afc7 bd6d6619 bd457f57 bd2f82ab bc47702b bcd2a95d bbb6fda2 bcd7279a bcb94895 bced982f 3c43f7a9 bca4ba92 3ce4378d 3bb9e4d9 bd460d52 bce7d0cd 3cad56d9 3dd28c6c bd73a495 bd562720 3db897ef bc63f12c bd41e8fa 3c58faa0 bc8fc65a 39ffcdb7 bd2b6264 3c8cb24b 3cfba7d2 3d96ae58 bcc2fe08 3d31f645 3b8e52f6 3d15c7a3 bd1c0c8f 3c64ab74 bcd13635 3b2f8aca bd2f4b45 bbe84655 3d18be8a bc874586 3b0ba3dd 3ca830e0 bbd57b91 3ba1db6c 3aac0f03 3d224826 bcbcebcc 80002f10 bd043182 3d14fc2d bbbf4d98 3ca727d5 3d0fb096 3cc5da93 3d86c3c9 3ceb766f 3cd61844 3d024639 bd5a1905 bc353482 3c5c5d54 3cd521f8 bce97e2b bd4f7fef 3c913786 bc75165f 3bef14dd 3d20cebf 3ca51a32 bcafecfa 3d30fff5 bd40f66f 3c9c520e bd359035 bc98ddba 3c35cc56 3c885479 3bb153d6 3e0cd9e1 3d531d18 bbed1687 3cf81132 3c76f384 3ca872ee 3b52c29f 3bc28301 bd531cd3 bcb38f8f 3ba03504 3c1e90ef 3b69a53c 3cefd043 3d569189 bc46f295 bd4af444 bda8141a 3c91bb5b bcbdde1d ba22d241 bd4a9233 3d03f105 bd4b96a2 3c84b6e1 bcb9c792 bb90755d 3c2e2da9 bd130d88 3cc540cb bd45ccd2 3cb5c5df bc9ca955 81e08ca6 3cceddb5 3da21c9e ba7e8a79 3d5e55e8 be23fbc3 bc8c4633 3d41d395 bc82dc48 bc8f8dda 3d3c8ac3 3d0d6e1c bc0991ae bcddfa9e bb959a84 bc88dd2e bd048e59 b9194b2e bca78dc0 bc061bd4 bcb99d92 bcbfb8d4 bd3c4c5a 3dc78dd1 bd0fd259 bca3b4ed bd03f695 3c8dfad5 3ce42a0f 3a326a62 bcd8f1f1 3dbe25a6 3da878b8 3ce1e026 bc90ce2d 3af43ad1 bc869c64 bba4ed58 3c809e9b 3cd75405 bc04def4 3cb275df bd15a217 bc99c734 bd8e8d93 3c13977e 3c206eb4 3c49b5b7 bd3d06c8 3b87f889 3d3a5b55 3c8fe94a be00fb2f bc7efa5e bc600b37 bc694c6a 3cb1b5cd 3d188a33 3ca9d078 bce60653 3cf59743 3bea90bd bdef9653 3cb2a726 04faf23a bc74dfa7 bc299e97 3d924a54 bbf33ec0 bc9b3785 3bb94f73 3d8016d5 bb6c77de 3d063228 3d0cded2 3dde6f5d 3c70dfcb 3d2a3c32 3d800167 3d120908 3b2291d1 3caa1790 bc8c359c bd60c8c3 3d0e6b8a bc3831ce 3db55c89 bd951232 bc741719 bd623b81 bbaca8fe 3c6bc424 3dcb5570 3ca8c77c 3ce8b74e bcfd98ff 3d34f21e bc85d07e 3d245b5f 3d0cc83a 3d7e690a 3bba0f4e bd79824e 3c293455 3d593932 bc320705 bd10cf92 3d39b726 3d1542cc 3cd9d91e 3d02308c 3ce0aca0 bd09bd01 3d72f42b 3b1a7abe 3a331966 3cf14388 3d45e5c3 396b1750 3d157a43 3c529bfb bdaea794 3ba1a9f7 3d43b639 3d810a7a bb8006d5 bd06e8c2 3c9c597f 83866e15 3d12003e bc7da479 bcfa925c 3d404efb 3d21af0b 3bb3a784 3c804d90 bce2b25b bd541d0f 3ca98525 bd46cc2b bd3f2252 3c7a75bf bd00562e 3c54bea5 3d2f8f87 bb98e967 3d3736c4 3c4828f3 3ca7e4c3 3d8facf5 3beda124 bc86a832 3b321930 3d25ccd9 bdd0893a baa990f7 bd1f90df bca6ae7e 3d06beb5 bcff8bcf bd085315 bc7e5424 3a08b17b 3a871959 3c59c707 bbf6fa7d bb5be56d 3caf9f76 bc012c79 bb24212b bcaac729 3db8e608 bada0a7d bdd9feea 3b96032f bbde8fc2 bb4ebac8 3ce78c19 3c3acf8c bc20b1cd bcf89c8e 3d087951 bd243433 3db9da24 3c1f7ba4 3dc09f61 bc0a2b71 bc17a3e5 3d84d0a8 bd15b842 bc6cfc85 bcfc9b46 04300fa3 3da5064f 3d504587 3d1589e9 3d743028 3c86d420 3921f060 bd0f6962 3c3c340b 3c131d14 3c2cd1dd bd12aa54 bd0590d9 3b2aa65a bd3cb12a bca2dc31 bd38a8d2 bd0c9c00 3cb46b80 bce0560b 3cd38ddf 399ab49f 3c491c6a 3c154eb1 bd3cb100 3c8fedac 3c0ba7de 3d97cc95 3cc83b2f bcd355d3 bba2363f 3d60ebba 3c7abf0b bcd48533 396cf792 bb221fb6 bb9f1c70 39b88d73 bcb0bbc5 3c679bbd bca7ab81 39c6f981 bcaa615b 3be9b13e bcf86fbf 3b8290c1 bc172437 3c0d421b 3af8f5e1 3c980947 bb0b5309 bca2d9e3 bb69e5e4 3a4a016c 3dce7e50 392be7b3 bd266299 3c349a71 3c3e0cc6 bc84e61c 3ad43a85 bd4b94d2 bcb14218 bc20dd58 80003e68 bc41477b bc067340 bbfbb366 bc7ce720 bc1a2857 bc2d4d32 3c0d0321 3b86b53b 3c7131ce 3b4abcf0 3a2ca15e bb9b5424 bda0e797 bbb34bea bb87bc39 bc36a7f3 bc0f3827 bc3d6e79 bab44665 3d141e57 baa88626 bdcc538b bc460c79 bc1b9634 3b8255aa 3b4a5d5c 3bbf4c80 bbf078de 3d9fd047 3d9ab9e9 b89be28f bc223961 3ca21978 bdc91f2b 3876a927 3db38366 3c914453 bdb4b61f bc4bd58f ba811598 3aa08826 3bc3f8f1 80000ed7 00001fe9 00000fa4 80002305 00000aaa 80001187 00001e83 0000031e 00001494 0000103a 00001f67 000010b8 0000031b 000002f5 80000c10 00001dcb 80000fad 00000c08 80000cd7 000004ed 000022b2 8000090f 00000975 80001621 80000ee1 8000149e 00001911 00000344 00000445 800000ec 80000477 8000084f 000008ab 00000ac6 800019fd 80001739 000020a8 800021fd 0000039d 800015d1 80000142 00001286 8000056d 0000137c 8000108a 8000026f 0000147b 80000302 0000154b 000010eb 00000b1a 80001ee6 00001d5e 80001d4d 80000a8e 000018a9 00000ea9 0000024a 00001ac4 000018b1 000015e2 80001a49 80001791 80001457 3c677553 bb113fbe 3dbde58e bca6596c 3cc7055a bcd0531b bd49171e 3c462a92 bcca0ec0 bc316cd1 bd5bb806 bd1333d6 3cb26f9c 3cbd41ee bb3b17d4 bcbc2546 3bbb6567 bcc85db0 bd52041e bcd14043 3d3482d2 829b74ee 3d3eae63 bb3b4c89 bd5c23f3 3cf1d777 bcee9aa7 bd3f008f 3cc3853e bd2eeadf 3ca1883c 3b3af251 3d20d2bb bd8baf12 b9e4023a bcf9edf7 bc5aa9ff bd152fb2 bb3de292 bcfc82e0 3ba8b14d bcd48eec bdcc6b76 3c809761 badaff31 bd0cc48c 3d912454 bd970a9c 3d6d03cd 3b227af1 3ac697c1 3b3f35c7 bd292af3 bca4d86c bb9b2c96 bc4181ed 3b842d1b 3c9ac418 bc17102b bc8dfe8f 3da4f42b 3d377d35 3c75b7f4 bd369f81 3db2c95c 3cccaf54 bd3420dd 3d812d71 bca8cfcf bc4f4746 bbfdc6b2 bcca6c50 3bc94278 3ded0fb2 bc8b7de0 bd31b6cd 3ddc32b7 bc3271c2 3c4988f9 badcc33e bcd4d4d1 3c1f34d6 bd4015cf bc04cb52 3b0997e4 8288075f bd857e07 3d6c2aae bbba6e90 bb5a2a27 3dc7ad7e b7d37a18 bbe2074d bd46c3bd 3c8796a7 3bc3dc04 3d595f9d bc7f4166 bd12e326 bb2df8e6 bcdbeccb bae7c6e6 bcf40dc0 bb3cd0eb bd1b03e3 3c99e056 3c6e061f bc8c8bd2 bb7ef7c9 bcac62fa 3ccbcf49 3bf9802c bd85967e 3d061d43 bc071764 3cc909dd bbf775b7 bc33e168 bc80c9c2 bab413c6 3d5c5af9 bb9bf4cb bc7c7e10 bbe1c543 3c92c84b 3cc63c8e bd1ed9a2 3dbfa1e3 bcc2e331 bc7238f8 bbab8714 3c5b3e35 3b1760a5 bc4e0f34 bd5b4f06 399a382f bb9997cb 3c051e79 bbcd525b bcfa6c51 3d179603 3bfa57e8 bc7b6bc2 3d1a91a5 3d0d6ec3 3c847a6d 3c9d2f82 bc57fc7c bc98da93 80003b10 3c0331ae 3b5904b1 3b8386e7 bb17a201 3c0b721a bc045009 bcfcc8f4 39b25a44 bc233ed4 bc4f1ceb bce95634 bd19a3d8 bc44e9e5 bcf915b1 bd432c94 3c6d8cbf 3c3b2e84 3d2ff4cb 3cd8273f bb16e9fd 3c2e3ffd bc3c4c24 bbb82d5b 3b675c2d 3b8c0c1c bc3fb801 bc6eb579 bb98540e bc895ba6 bd967d6f bad6743f 3cdaace1 3c04171d bc99cf7e ba1f0e03 bc9ac727 3bcbbc08 bd0a90c5 3d0f20ed bb9647dd 3ba9accd bd0bd362 3cbcdace 3d5e4821 bd80f6b6 3c46c27c 3c3f08d0 3ca401a8 3d2c117c 3d48a608 3c623a03 bd172a4e 3d580557 bcd9e541 3cdaccdb bc0e7105 bd25dc43 bb8f92ad 3c08612a bc957e66 bcf98d7a 3cdbb55c bafc593a 8328059f 3af1fc63 3daa22de bcb2ba0a 3d5ce02a 3b73e775 3d05ba32 3c7ecfb1 bbb9e825 3a430dcf bda0e46d 3cc5cc7a 3cb729c3 bd1c07ba bbb3a97c bce73e68 3d04de19 bb8a536b 3c6e641b bcdde1d5 3bacd4c6 bc601e56 bd153b75 3d332b42 bca89009 bd153731 3c989194 bc792ecf 3b82409e bc17d984 3c32fd53 bd4d3a62 3be71092 bd8f17d3 bc923ddb bdc9d698 bcbfbf5c bd30649e 3c435a1e 3d756cec 3bfa60fb 3cb3ff8b bc1338ce 3c2fd0ef bc227f2b 3ccfc0fd bd2c58a2 bd14bb6b bc884b23 bdf26dfb bc7c5332 bd82f83b bd434630 be05b8a5 bd0dd640 3c94e4db 3b06f12b baf0aa19 3d41901c 3b996f8c bd449658 bd639cc5 bce570bc 3d6de6e2 0381f0f0 3d8576e2 3ae52404 bdad018b bcf2d8a2 3cc61d37 ba5bb925 3c545636 bcbc9406 3cc5b171 bbb4bfb9 3d360da8 3c9a604c bc344303 be0106be bce4a023 3c9c6fce bd22ebdd bd580085 bd29ef12 bc543c4f 3d54e07f 3b946925 bc5b9850 3b2f407d 3d60c9ba 3d3a3228 3ccf01c6 3d39f996 3a1373e9 bbf9c0a1 3c5a9fc5 bb5d52d6 bcc287b7 bc92f26a 3c739e2a bb75d5f6 bd7d3df4 bc55bb0b 3d0923c6 3c3c4a05 3c89158e bd317bfd 3c9826cf bc83c606 bcd0579a 3cdf9449 bd11505d bcdba1df 3cdb3196 3baa5ed1 3cf8df0d 3c9a6101 3d3d3626 bc4f8b7d 3cc195af bc299cb3 3c674484 3cc3e207 3ca0874e 37baa74b bd20995d 3de3a108 3d107779 80003bb0 3c315d92 bca6833b bcf08054 bbf4f6af 3c66a195 3d175aa1 bc86941b 3caf1956 bd2deb11 3b01972e bc5114e4 bc49a88f bc399f7b bdaf28d8 bc9d7847 bd0e8e95 bc34bbeb bc8b43c8 3c48bca6 bd179557 b99837ab 3c03786e bc07a899 3c400a81 bc8315dc bc378165 bc3a64d8 3bf51124 3d26600a 3c6227c6 3c78c95d 3d26ddc4 bbc73736 bdb850f1 3c8b5490 b906a505 bc3e74d0 bd5db999 3cba50ad bc6c0bc1 bce4b762 bb0072df bd001a58 bb57f67a bc5020c5 bc04b6ec bd155aab bd087e65 3c79d881 bd40e700 3d739126 bc529e23 3a0d725d bc143e29 bcdee4a5 bd7ba328 3cf4c5cf 3d271004 bbb2edce 3d343530 3c5c1e5d 3c22f121 3be7f677 00002db8 bc48d396 39a9886e bd059516 bd00946c 3ccf6b2b 3d7167df 3c2d33a4 3d3f2724 bc84ac18 bd17a436 bd401df5 3d84d0c9 3c53f326 3bada031 3d2c3dbc bd97ccd7 bc79f8aa 3ce9fc9a bc5833fb bcc17acd 3ba1f539 bc9554d5 bd5090fb bc86e27a 3c59f0ad bcf67aba 3d55b757 b9b22476 3c805691 bd1adb3a bc213d0a bcd981fe bcca4256 ba909859 3da00418 3b673988 bccd995f 3c6a6c30 3d0fae5a bced572f 3c7d36e7 3c0ad866 bd84991c bc8b7973 bca96ce5 bcc66290 bd0e95d4 bd2c20d4 bd433d52 bd9571de bafd26e1 bcc4cccf bd29cfe2 3a70dbb2 bd812094 3ba1b78c bc33e42c 3bca5a4d ba70153e 3d5a09e6 3ab72257 bc8f9db7 3d6632b1 842bb494 3d32cb5b bd6debdc bcf5c97f bc86eba0 bd083e74 bccc40e4 3ca35f2d bcaf9370 3d0291d5 bd39823d 3c86f84b 3cfde65a bc460bc8 be1b29e1 3ca337c1 b8387bec 3c07f776 bd50cb39 3d48687f bc9cf50e bc675687 bc96c117 bd31c694 bd9c57d9 bd5229c5 3d15668b 3c1b1378 bd9d28c3 3ccea79a bc7da09b 3d3d7a41 bc303015 bc2fd99e bcc10382 3cc5bb5b 3bd84509 bc11c02a 3cf581a3 3bd613c7 3cf69d14 bd00279e bd1b3eb0 bd0c80f2 bbbf9dd5 3c0bf3d4 3c7985c6 b9c1a2a4 bd3255c3 bc93de3d 3bab8a08 3c2042b1 3c02f9d4 bc1d479d bd93b939 3d7ac118 3d636131 3c778d42 3d5401c4 bd4f13b4 3d1afb6d 3ccf9920 baa5c9c7 3d52d081 80000796 bc31c396 3d09f352 bb209007 3c76147b 3be365ec bc8c39a1 bd2a595e 3b2ff82e bbbe24e6 bc6af601 bc1c2cac 3cab647a bd0a083c 3c85c178 babcf713 bd191d00 3a3b4e08 bd5d7093 3cfc0853 3c62af4f bd16d020 bb9d011b bbf962de bb9030cb bbe0b33d bcbee926 3b3cb2b4 3c8a2ff4 bd238f2d 3b2e5553 bce648a6 bc03a5c9 bc4528c6 3d0a41c9 3c8fb471 3bde408e bc5b5bc1 bd6177ac 3d11a3e7 3ca57a3c bcc65672 3991ca95 bd053852 bd9542c2 bc23f606 3c4dda25 3cfb0f5c 3d5983bb bcc05366 bc9f169a 3d29cea9 bd71112f bcff3d82 3d173573 bcd86880 bba00424 3d94b0ca 3ce05193 bc80872c 3b7d140c 3d1a3df8 bca2af1d bd737dbb 03fed153 bb65c0f8 3d89d2c3 bd14ea27 bce214f5 3c6afd0a 3d588f04 3d834317 3dd21281 3cd75c1a bd2f721f 3c6859ea bd12286c 3ce507c0 3c9e072f 3c8c27ef bbaff439 3d632844 bc305fe2 bc181214 3d35e1de bc679755 3d10246e 3cee3762 3d5818cb 3d0ad522 3ce96aa7 3bc9e813 bbb98954 3ca8cada bd058979 bd68ddce 3ce2fe8d 3c0629be 3ba945e6 bd20dc5d 3c8f7647 3b14e4c0 bcb96c98 bd903e27 bd34edb6 bd55b14a bd4ccef6 3d67f6cf 3cd446d8 3daf432f 3d451bb6 3bc30aee 3cf800bb 3d73d62d bca6dc3c bcb08e6f bd9075fe 3d698a25 bcb86f7f 3d9ac435 bc84bff2 3c4f061d bbdbbd05 bc8028aa bc1411c2 bca31d93 3d6c5661 bd3862d4 823956ae 3d02afb5 3ce6c469 bbf92381 bc482ab1 3c0068ac bbf6fd46 bb23fb06 3d01218f bcc2eba7 bcd0ce4d bcd5c756 bb7fc268 bd004548 3ca22302 bb943868 3b0a4f98 bd90d681 3cf3fe71 bd677d03 bd35ed49 bb41b875 bd718465 bcf4c603 3c21348d 3cb46c90 bc3c4151 bcb28ebb 3d517fe8 3c099132 bc8173d3 3d905224 bd0b405d bd6e9ff8 3cae86b6 3e0b7fba bcb2e88b 3d0f92bd 3d30360c 3d703d06 3c83a540 bd512bf1 bc3bfe1a 3b5bfe74 3ce6f9f9 3d39fe25 3d12d088 3d00dede 3d4ee170 3d14d3ad bca47e17 3d14de76 bbbe0d13 3d231982 bb4dfb69 bc8a1a56 bd3809ac bcd9bf36 3ba27b11 bb4d95ea bd20722c 3d05560d ba727d24 bcfc95bf 8425813b 3d64fb9f 3ccaeafa bc50fcac bd04ff21 bcdb2ca6 3d33bb2e 3d00616e 3ce19672 3d2b2dd3 3c3d2adc bca9bc1b bc74d452 bc1faa2d bd147860 3c4edbf3 3d06a20d 3b77617c 3d39bbc3 3d52e932 bce66f17 3d67386e 3b871eef bdc8f136 bcc38a2a bd626e95 bcaa97e4 3cd6d1e2 3dc7601a bce097ef bc2c9814 3bf15f37 bc29f062 3c6fc0c7 bc1cf352 3cd18f4e 3bb16c00 3b6c6a94 bb0bc477 bc39882b 3c9df744 bd36f4e9 3ccdca99 3d38a40f 3d4ffefc bc1728ce bbcaa5ad 3cba9d65 bc6e8be9 3d540a15 bcc11415 3cd941e3 3c0c4bb3 3d853de4 bc897ec0 3d908d23 3d00fd90 3d4b3f45 bd8189f4 3c9fbf7d 3b293b04 bc311064 3cfc172b 3c6931a8 831da8a1 bce78fcb 3cac3481 bd61712a bcc690b2 3d6ecec1 bd891d67 3c5fa50f bc5a5308 3da01473 3d0d5e47 bbd5b8ad bc9902b4 3b0cc141 3c1eaf4a bd8a0f6f bcf66b04 bb52df9e 3bac3ace bcba3279 3b8b2b41 3c2818cd 3bc0ba8d bbf05df3 bcc5d6d2 3b61b1ab bd118284 3cba5614 3bf3cbce bd2ebdfc 3c06fff8 bb4ac138 3ba56e9d bd234f97 bc192b4c bba03d31 bc3836c7 ba800c77 3b95fd92 bc2abfdd bd17a7ce 3d213620 bd846413 bcca3df2 bb8cd730 bd0bd62f 3c37160d bdc5a0cf 3d65789d 3d98f032 bbe51413 3c9e3942 3cf78408 3db5c25b bdb10597 bd6b3952 bd8ed860 bcf1910c 3c341a6e bd12acad 3d0a2f06 bd6de613 bb127d31 bc33442b 833420c4 bcce6a03 bcd4b5b2 3d4f8737 bc9e3700 3c45cdf3 bca58dce 3c6a4bbb 3c7c8b3c 3b4a4e83 3c475b81 bd5872f0 3cd7c504 bc000bc0 bbca4f8d bc7103bb bc682566 3d89358d 3bd809f1 3b88f049 bc52d25b bd2f6359 3c2ff735 bcfa7806 bb3bee6d 3bee017a bd2cf3a0 3bd955b2 3c46d3a5 bcf3fa56 bcbe0a9b bd00fda0 3a4bbddf 3d160239 bd159102 bc9d439e 3b44fd30 bd6ebfd5 3c41581e 3d64b7e6 3d310290 3d0077b6 bd13bf61 3d5ca20f 3d396acd 3d998c5f 3da753dc 3c03434a bdc09700 bd3ed5e2 3d4b60b8 3c689dff bd228d32 bd27f321 3cbb846c 3d88de3c 3c6002e6 bd125e12 3b1394ce bc0c8627 bc042f18 3c576176 3b712806 bbd93f94 800008a4 3cbdfcda 3c62ee9e bd44e787 3ca67bd1 3c6c4e81 bc203c65 3d022a9d bcd53ac4 3cd87203 bc54225d 3d758d3a bd8a6c47 3bec102e bcc9f7d1 3d112f47 bd6884a9 3c0d7c1d bcfe39c0 3d5e86ce 3d39be12 bbc38f0b bcaaeee7 bd75d272 bc078f1b bd3bcd44 3cc35ea3 bcbe5893 3c123f2f 3ca92ac3 bbc239da 3b89a74e bc218b97 bb9028bf 3d24ef0b bc214de4 bc000c64 3d0703bd bc8e4b98 3cfabd33 bc7686c9 bca4a69c 3c9ad05c bd38ce08 3d3adc7f 3c3ccd7a bc3a5013 bade56d6 bd4fb78e 3cfe1580 b955809f 3b903317 bc0f7212 3d1adf84 bcf08353 bd71a33a bd2cc9a4 bc559e9e 3c811a9a 3c4ff059 3c3eec51 bd0a314b 3d19c558 bc82e65f 800040f4 bd236639 3d8a7503 bd013129 bcadde15 3d5f036b bcd7791e 3c63aee0 3bb61e74 3c8bfde0 bc2226d4 bcea9521 bd2339c2 3b9f7d5a 3cb74117 3d3f7d05 bcbe3964 3c4b7c91 ba9089a8 3bef407c bd09c674 3d221bad bd926d4e 3ccbeb02 bd1e0376 3ceb8f2f bbe1a8c6 bbbb0aae 3b9bc8d7 3c62b9a9 bce299f5 bb1923f4 3d3ecfe6 bd7dfb01 3c9a1b23 3cdc859d 3c8a98bb 3d15a254 3cc980f4 3c8500fa bd16b7c9 3d2a6361 3cb688cd bcd4f7f9 bdc91d19 3d27e9c5 bd578e0e 3b0bdc37 bd3b6045 bd163d2a 3cf5c0b1 bcc8df1d 3cd97136 bd2dab3d bc823944 399d31f9 3c64e058 3d5185b0 ba2efbfd bd82dc84 bda94379 bd27df03 bc8655fe 3d7d23ba 83bedcd4 bc986783 3c887b70 3d707957 bca96ce2 bda788dd bcd1073a bb230d2e 3d11116b 3c20b5fb bc063929 bcb7f985 bab166e5 3c5781c6 3c81373f 3d201ac0 bd7a7680 bcf038a1 bd85f420 bd5a49b6 bd097572 bc5b7722 3c20cd13 bd7c9174 bc2d19a5 3a7c77dc bcb9daf5 3ca48e06 3d216cc8 3d0ed8a0 bd67305a 3c23c08d bd3ab05f 3c30bd40 3bb5b406 3d0f58dd 3ced835a 3cb2d86d 3cbeb2f5 bcb0e05e 3cb2d6e3 3aa03bcf 3caaef81 bbc4f761 3ceb75e3 bbdae0bf bcdd6940 bca5ed26 3af3fddb bca6cf0a bcb4f54c 3d43b815 bd7fc3c1 bc9b35c0 3c0dc353 bae9ff1d 395b26ac 3d621843 b7184f91 bbda93fb babaf2ff 3c79edb8 3cb6c090 3ca981fd 035d1862 3cf1aeb5 3d67b569 bcde2399 3c8e5201 3d42bddc 3d2e4729 bc9ccbf9 3c7113b1 b94275b5 bca40b9f ba872285 bcfb49a1 3cd60979 3c0b41e9 bc80a5a3 bc71949f 3ce72fee bbe3726d 3a075773 bc207b92 37e29541 bc932e85 3dd1b736 bc30a2b5 bc9bbeda bc77c09b 3d56a882 bcf3b2ae 3b5e2975 3bc6a7c1 bd240592 3ca420a4 bd7af82c 3b8430e3 3da00e6d 3c62c1e4 3c567ef6 3c0a9e5f 3dd6ad67 bd1d4190 3c29dc51 bd4a601d 3c8d7294 3cb0ec5d 3d309624 ba9891c7 3d3bd9d7 bb1f35ad 3985479b bd221cca 3cbf9ca4 bd1705a9 bc2fa163 3d36f544 3c26de33 3c85ae78 3cf30533 bc75b5b6 3c97c256 bc7effd0 3d4d9b1c bb9a900a 3cc3a107 04367e18 bd67f6ba bd0402c6 bcfb2b47 3b66eca3 3a8b9a9c bd263675 3db77f92 3c69b6ad 3d4777ab 3d89e65f 3c82755b 3d37aac3 3be1d0d5 bd704ab9 bd2ac0d6 bd9bc636 3cb17d8d 3cfe117a bdb33bdf 3c6eb6d1 bd66262b 3cc54472 bcda5fc0 3c46ebc7 3b7e13a5 bd10e062 3c4d9742 3cdeb225 bcde8b17 3cec6768 3c3bfa91 bd0d52c2 3af0e511 bcc548d4 ba6db163 3c94067e 3d49c3a1 bb086995 bd76219c 3b79e887 3cef67a0 bcee5ec1 3c1df85d 3c382b67 3bdb32d1 3b6d9cd4 3d2827cc bcd2a3d0 bd41a033 3c44056a 3ac0e50f 3c936733 3d07b80c 3d8208b5 3c87f421 bd4c921a 3caa912f 3a75e15e 3cdfbcfb bc96218b bd47013f bd21d95c bc20c447 80003160 bbeaae7e 3c3becf8 bc1f6fea 3bc9e3d6 b824e0bf 3d2c5f6f bd0d2b0b 3c88d838 bb86c6f3 3abde1a7 3cc3ffc4 ba1760b4 3b1a6f99 bc173146 bc36a267 bc223327 bcae37fc bd2813fc b82ebc70 3cee9649 bbc91135 bd0181cd bc212b7e bc6ff090 bcc6c786 bb351ec9 3ba2c99c bc6dcaaa 3db606db bd0da7c4 3c21a731 bcba3028 3cc28830 bd77e912 3bc2a3ab bbae0505 3c101bee 3c60eefb bbb4e68f bca02faa bd4395b6 bbfd1038 3cefdd51 3d8eb225 bd3bd6e7 3bbbbafe bc2b64a9 bd37d4da 3d5330cc 3d5f1ff8 3d082b98 bc634be2 3d082fcf 3c963eed 3d184ced 3c17a020 3c754aa7 3c8030b6 3cec6bf8 3cc7bd3c 3bcc5d85 3b969b1c 3c281b7b 80003b18 bcc7ebb9 3cb6407f bcf6721c 3da42cf3 3d2901b7 3cc49451 bd267388 3d1f0d41 bc140dda bb235b54 bcc65e67 bc2006da bd6f3703 bbb195fe bb9c0c66 3d2abe85 bc9b28c2 3d81bff6 bc7604e9 bd1eb131 3cca1fef bc51dd95 3d1a38d6 bc62bbab 3d2db18f bd2109df 3c172edd 3c2817e2 3c23fc84 3c67a84b bd0a4ffc 3bedb62e bc0298f2 3cfdd03e 3c9a86a7 bd37ce3e 3cbc1aa6 3c6e75ea bc383374 3d23d32b 3d4678d7 3c315619 3c91c872 3cbebc97 bc4af9d8 3d57df7a bd76da15 3d17a391 bda0e320 3cf61cfc 3951eda1 3d56fa99 bda2fada bc8dfa8d 3c998fbc bccf0d56 3c5b106e 3d48b93a bbfc7017 bd7f40f4 bbd97b02 bd663817 bc674a1e 04875aa4 bcc4ba9e 3c2fe6bd b8f1f8f3 3d39083c bd6db282 bce81407 3adcba33 bc2e2f1d 3c36ac5c 3d7a8bd9 3db72078 bce29f76 3becbe1a be014d4d bc6284cf bbb677b8 3b629c2d bd6d8b62 3c69d647 bbda4eb1 bcbd03d8 3d12f315 bb35c2eb 3cac54a4 bb99b301 3c0d574c 3c04f028 3d906528 3ce3540b 3d09cce4 bca6854d bd68c833 bd43ba2e 3ca7b390 bde1a39c 3c2373c2 bc20ea5a bd37c611 bbddfc8f 3c3cc72c bceb1b4c ba27566d 80002140 00000ad2 00000543 00000ebc 80000482 00000c05 80001851 000008d3 00000daa 80000bfe 80000ac4 800017c5 000005ed 00001cf6 00001551 80000dd3 800008ca 00001eca 000011b4 800016c6 8000089d 000014ae 80000347 00001403 8000018d 0000180a 00000a72 800004ef 80000332 800005b2 800003b8 800020b1 000009af 8000060f 000019fb 00001489 800019d7 00000587 00001b0c 000022ba 00001621 000010b4 000017f5 0000177a 80000b69 0000177e 80001b8e 80000b2b 0000021e 00000e64 80001415 00000a69 8000058d 0000055f 000001d5 0000064a 00002024 00000d97 80001335 00000528 000011ba 80000154 00001403 00001142 bbd39b22 bb7d9970 3b94d6ad 3cff2617 3c768832 bc0f0166 bd4603ff bc8c6ba0 bbf6011b bc48652a bd791b65 3daeb407 3bc2fff6 3daaa156 3d210198 bcd20b8d 3c397b55 bd1ed53c 3d377cb5 bc1c6180 3b2f79dd 823c488c 3d02b1e2 bc5b7217 bd274323 3c0bfeaf bd3eea2b 3c894d48 bcb7dbc6 3d6cdd32 bc7bfab3 3ac446b1 3d62f03d bb868ff3 3c9e88ea bcda957a 3d01d760 bb8d22a9 bd80f585 bc3604aa 3b04631b 3d643fe7 3c863c92 3bb9ad3e bc0af0cb bc053cf6 bd043235 bb55e8ec bb0be2ea bd282e40 39931bba 3c8e92db 3c1ff6a4 bbe99636 bd3c0b1c baa38c7d bcb69f55 bb996c1b 3ca5085b ba9a1e1e bc85feb1 bcf5c584 bd4ac8f8 bd08cec9 3a56050b 3c05ca6a b7dc033c bb551e5d 3ca32516 bc9cd1b5 3cde9459 3bcf1e02 3d67b636 3c324035 3b3f9cc4 bd029416 3d089c26 3dd6c1b7 bb89c0e8 bd3abffb bd67c608 3ca5b4a5 3bbf9bb1 bbc555a4 bcd073e4 00001c78 bcd226d2 3d34c53d bc1b05c1 bc78f8f7 3c9cf3b2 bd487087 bbbde618 3c9a2162 bb1d7ea7 bd2e88f5 bc451f04 bcc871f8 bd352d70 3c7a40f0 3b787d79 bd08b389 3d256f2b 3baadbb8 b9a87154 3d50cbde bc79500f bd01368d bc249f01 bbec322e bc8cbc76 bb6c7739 bb9d6c35 bbaef564 bd7e24f9 3cadc57c 3c361e61 bc7dfe3b bbb9b801 3d1ec8de 3c0148c3 3cdbd42f 3d226db3 bb737f6a 3c029955 bc569a66 3b950d78 3c14e094 3d49c6f4 3b967a94 3c85446e bd1d19c5 bc50b190 3a17ba62 bd297ee2 bcf91a48 bcd7b56a bc038e32 bd0b74bf bccdfed9 3d501201 bbdfc086 3ce1db49 ba5331c8 bc8f830f bc367d22 bcc6244b 3b079279 bac4501a 00003aa4 3ca8fbeb bc546fc6 3d69b52e bbeab6f4 bd0ab565 3cd3f541 bd167a47 3bc14694 3d33a4f1 3c88f51c 3bb29816 3c466d65 bbd3762b 39220914 3ae74d2c bbd2d2ff bcff8ad6 bca75200 3d062db9 3c9b37ce 3ba23a46 bc14880e bcc0464c bd6c8dfb 3d2a9cc8 3ca8f615 bd204891 3cd2cb51 bcc94588 bc7e01a1 3d57c9ab 3d65e6c3 bbf51847 bcaafb38 bbfac254 bbe029e5 3cba0f16 3c63965c 3dc5df2d bc851293 baac32ff 3d333bc6 3c881a52 bb972d50 3d38053b 3d5ad135 bb5110a5 3d068634 bd86c6c7 bd08f701 bcc3c903 3d187c09 bd924cd8 3b9400ed 3d307f89 3cb47e1b bd78307a 3cff27c9 bc632340 3d1a6772 bcb8a6dd 3ce1a8d1 3ce78b94 01e75015 3b8c89e1 3a97f3da bbd42fce 3c163b0c bd1dd84e bc64deb8 3b1454c1 3d0b6ec2 3c32d2d3 3d376e34 3ceb3cb8 3d9bda87 bc9f5256 3bf0add0 3bcc9897 bda022f4 bce612c3 bda6f113 bd11f226 bb8293e7 bcf01897 bcdfde32 3c0a78bf bc2f5b1c 3d060dcb bbf47e6d 3d350253 bd92fe5c 3d191593 3b89c3b8 bd649498 bd7f91a4 bd950693 3cb72fb4 bd227c15 bc224580 3d26333a 3c817f8e 3cdd367f bc6c1a9d bcae8ad8 bc9b322e 3cd6a56e 3d103a34 bb35de0e 3d13e9d6 bc0c6d25 bb581739 bc14a023 3b1cd3af 3c81928f 3d8503f3 bc26c0a4 bcedb8d7 3c03d180 ba1e9fce 3c1f4b14 bc8782b7 bd7aa0fd bac3adab bccedfa5 3b87a0c1 bd2d3c69 83c80fac bc1875dd bc0d7cc0 3b2c2f3e 3cbaf020 3c7b1b61 3c6392a3 bd36e617 bca9a91e 3ba8bce5 3d882131 bd85c388 bcad406a 3c51aaca bc051aeb bd12a6f7 3cf8b9e9 3b8ba64f bc288371 3d5c1597 bcc13c06 3c82d2bd 3c85e9f6 3e19423d 3d930b1c bce75e08 3c7b6ed5 3d716e12 bca29cd2 bcde112a 3c68c3ee 3d90dae0 bca35fc5 3d214b84 bc431188 bd099416 3a763171 bcb038f8 b9badfad bd86eefa 3c60352d bcb5f67d 3c278d79 3dd0aa58 3cf47025 ba961a79 3cfbd4ac 3c364508 bc9862a9 3da3a215 3c62bfaa 3cb2ba69 3c9a13b5 3d98172e bcb49aa3 3e0f6805 3d8afdcf bc5cce55 bd921cd0 3c9c6ae2 3d123eae bd47c63b bc4baec3 3c46dfd4 037400f1 bceb6579 3d89f4e6 bc2c59b1 3c5feb7d 3cb41276 be03859a bda0ab25 bb0d7860 3cc43266 3cb2435d 3cbd17fc 3cc1a533 ba7bf2fb bc8c9b22 bccc5fac 3b605e2b bc6921ff 3c866ffb bcf49559 3c0ad5cc 3be1e148 bc0ec32f 3c723353 3c9e45f6 bd16bff0 bccb67b7 bc2d94f6 3c506c08 bd83f02c 3caa0603 3c166c82 3ce63a24 3c8c42f3 bcdcb2fe 3cdc4214 3c9f5d2d 3c48b949 3b3ad211 3c9e078b 3ccb9b8a ba8d2fa3 bd0f524f 3d55e18a bc581b63 bc4c5b72 bc60864f bc9ef655 3c9a1b48 3bf16412 bc8bebf7 3bede86f 3c0bc70d 3d0eee66 3d8e82d0 bcc2ff1e bdd10441 b983529a bc97284b 3be57180 3cf79177 bd9c352f 3d0b5488 3c9af0ef 03cb46ad 3c897a65 3cc6f7a0 bc4df7f4 bcf567af 3bf0a1ad bbe72472 3d0c52fd bbe58e38 3c9447ea 3c243073 bd0bdd84 bbb5906a bd328b82 3c830eda 3c9768f7 bc664e3d bd4c35d3 3c61e65f 3be96ff7 bb769e19 3bb4ee36 bd35d5b8 3c186c54 bc8e0b7a ba808d53 bc799726 bc3d7075 ba86531c 3d4ee5c0 3cd30de2 3c2e15b2 bc34e9b0 bd146da4 bdae0388 3d91ff32 3d1a9a72 3b2337d6 bdbe49d7 3c19d928 bc8d0951 bb84e36f 3cf7f210 bdb4ca82 bb650d63 bd094898 bcbcb8b3 3d19fe9c 3abc4b1a bd704303 3c54e7d9 bcb02b1b bc9ebbc0 bd53147b 3b538eb6 bddf0899 bd14012b 3c966128 3ccc702c 3d29abd6 bd7831f6 ba658861 3ccb6b52 bc5b2d76 83b4b283 3d02837a bd95c3c7 bc8cea19 bd45467f bd169bd4 3bfaa9cb 3d352639 3cc9cad9 bceb8728 bc609e2a 3cd8df7e 3c5ded28 3cf3553c bd56f55d 3c816d6c bd043d6f 39edc6fd bc9fdbe6 3ce7bf7e bd20e221 bc415c12 bcb076e1 3cdeb9f7 3c81f6e5 bb3b419d bca594d6 3ca9f978 bcb8b759 3ab7ec45 bb8ae133 bbab5f77 3d47ed08 3cbee10e bd36b091 bd861293 3c846fb9 bdac5799 3cecdb46 3d47e6da bd33ac9d 3cf9b152 bb825e14 bd9654a9 bbe118cc baa32dc8 ba828a93 bca32e4d 3bd53b41 bb2dc7e3 3b8b32fb bd35c1de bc3401d8 3c2c1f17 bd2be3c5 bc31165c 3cf17ffd 3cc68e53 3d37052b 3bbb73a9 3c8acb7d 3d3dfb93 3bd70499 bb2cf132 800030fc 3ca78c9e bbbc5fdd 3c4a81b7 3d2153fe bc822e7b 3be696bd 3b671ef6 bb252822 3ca5f2dd 3d3b8727 bc69c42b 3c2308f1 bd0f6ce0 bcd267e4 bc935d97 3bcb54b8 bc683494 3c46fe50 bb9071bf bce08908 bb6c797a bd0bee63 ba2a47b3 3bd7e523 3c548b9c 3ac041b9 3a883e5a 3bf5f139 bd3ed675 3cfe1dcc bc7db268 3b8cd3cc 3c9f1fb7 3d28f6b7 3c964ea4 3d826469 bc91ca3b bda1d457 3c1ac18a 3d15fbac 3cee5b2d bb5049d6 3d391d66 3d8c4aff bd385f39 3af14447 3d824022 3d828bcd 3d1e4a88 3d331780 3d406d00 3dcd845a 3d4c39e9 3c08cdd5 3d42f827 3b5a3a5f 3d8bceb6 bd08cd40 bab3c578 3d29965f 3ccc7dc3 3c723730 bcf4b8ab 0249d73a 3d40a579 3d23420a bd3fa628 bc15f58d 3d333051 bca33f23 3dcec000 3d1689b9 3c324240 3d80a61e 3cf3b322 bc321374 3d1f92e8 3b821a46 bc8a3cec bccd603e 3d2d75ff 3cf171ba bc6e9f06 3bdcad61 3cd41804 3c5752ca 3cd8fd93 bce50c82 bc8fe59f 3cd333c5 3c10fc71 bd325e49 bcac0e3e 3c43acc9 bc8738b5 bca3676d bca8ef41 3b02a3fa bcb72614 3c38c770 3cf735e9 bc782577 bd5fae96 bd705c0c ba66d868 3d88e097 bcca97f7 bd346693 bd80e39b bb7b3f70 3c8c091d 3b7c13ed 3cb43746 3cbd1b4c bc9b5740 3b944f7e 3c9914f7 3c859850 bcc2fdc6 bc636606 bdea70a7 3d22c997 3d0ca58c 3d9747e9 3cf95cb4 bd9a0d73 bbd7e3a1 048536a8 3c9a44da 3c6424b0 3d070c7a bd01aeed bd1ff6db 3c7e6a85 3be005b5 3d06d9c0 3d47bf9c bcc270d2 bd47386e bcf5d61c 3cf654d2 bc0cd9c8 3ce98d47 b8c4e6c9 bc0ab2bc 3c45f8d4 3cae436f 3cc35440 bd34bf1b 3d3a4018 bd4befa7 3c5ef609 3d4f32fb bd1c2763 3dae6e69 3c7cb320 3c6833f5 3d53af2a 3ca898f2 be165ee9 3c58ebb2 3bac5738 bd1a83ab 3d112ac5 3bfb4b17 bc5c9354 bce6db92 3caf684f 3d108705 bd49bea6 3d0bce9d 3d8781de bc633d52 bcfcc405 3d8287c3 bcb46594 39207ae0 bad97f2c 3c03cef6 3be74261 3c739eae 3d2b6147 3d0ca4f9 3cd60b8a bc9e3b07 bd0ae8ff 3cbc0044 3bdbb26b 3cfec377 3d0b7a17 bb8f1b98 00001d88 bcb00179 bca533e2 bcad5479 3c3d136d bd733e7c bc87fd71 bd34387b 3da874b1 bc848f28 3bcb66c6 3cca6fbd 3c333dc4 bcb9278a bb715db2 bd50c952 3d28c74d 3cc03cca bbbad819 3ca1e0f4 bb400f4f bcc629ab bc67bee9 3d19b71b 3b6e5e9f bc9e560a bd53afb5 3cddd0fc bc904d12 3c2c26d5 3c29501a 3bb6f3a8 3d93fd32 bcc93212 3c4a9a44 3d2c12c1 bae72a00 3b36998e 3b7dabc2 3d93807a 3c8cc70c 3af35f2c bc4a9d77 3d67a489 3d7d37d6 bcbdf93c 3d07922c 3d00b016 bce326c5 bc10cea6 3d0e14db 3d45ed77 3c30e31c bce2e265 bbfe956b 3d9d07fe bc84f008 bd0f9311 3d1214cd 3afb31b6 3db6c18f bc318419 3d2101d8 bc296372 833cc21d 3c3ae92f 3d14e52c bd0c3ae4 bd4d71fa 3c600220 3d281de0 bd0c1d9b bc39f7f5 bd882f8c 3c71d836 bc626700 3ca86927 bc9a7b02 bd1150b5 bc37047d 3a2f46b1 bbc5421c 3ca2d1d0 3ab3bba9 bd0ce944 bb99fc02 bd8052f8 3cd2c5de 3d2550f9 3db59be2 3c2cbf04 bd45122e 3d2500e9 3d08cbd6 3c1efa2b bd8a6036 3d219d93 bba7cf50 3d23a42b bc9c0823 3b3e2ecb bbb8fa2e 3bd27acf bdda0517 3ba81d5e bc4d573e bc899e9f bd6a621f bd00863b bcc5ed05 bbd42520 b7b3197e 3d1c18f3 3d9e5d38 3c518dd0 3d297731 bd3da70d 3db2d977 3d012154 bd4da8b3 bd59b392 3bd47362 3bb54b5f bc52175f 3b6ee0be 3da89470 3bcaa9e6 bc7a7733 03bb17ff 3beafc03 3d8733c2 bd35efb4 3ccac007 3d899d75 3d4c044e 3d5cab97 3c8108c0 bc865787 3c76ede6 bcf8ff59 3be71181 3d805c5d 3c57f536 3ca78058 3c7b2312 3d7b955a 3c7056e5 bc9f7ee9 bb75e313 3bcce2eb bbd895db 3c9aa5ff 3cef239f bbbf20fa bcd365b4 bcee81dc bb82ac5f 3d17d745 bb810f9b bce81000 bc4152a5 baf6c160 3c9006af 3d3bfee8 3d54be82 3d8f3197 3bf22692 bd0fd80e bd7c83bf 3d6887a6 bc6d7324 3cd75fd6 3b6fb7b1 3bfa9872 3c5f2c97 b8d8341c 3d672c58 bd0a9d1e bcf46313 3c09de57 bc86415a bcb6a979 bca5fe86 3cfa8499 bc1918ff bd0d9bf3 bc8c43a8 bce531f1 bd16d32c bcba3aba 3c5a4284 3cdfee80 02cfb4b6 bc86b22f 3b10acf4 bc2d5f4a bcf8bed6 3b480f2d 3d04ef7e 3dd5ffe9 bc81fb8d bd3a033e bc7e47bd bc65adcc bd94265f 3d500e34 bc19b832 bcc90950 bc37fb48 bc68b63f bd1940e5 bb8bb23f 